{
  "version": "1.0",
  "truncation": null,
  "padding": null,
  "added_tokens": [
    {
      "id": 0,
      "content": "<PAD>",
      "single_word": false,
      "lstrip": false,
      "rstrip": false,
      "normalized": false,
      "special": true
    },
    {
      "id": 1,
      "content": "<UNK>",
      "single_word": false,
      "lstrip": false,
      "rstrip": false,
      "normalized": false,
      "special": true
    },
    {
      "id": 2,
      "content": "<BOS>",
      "single_word": false,
      "lstrip": false,
      "rstrip": false,
      "normalized": false,
      "special": true
    },
    {
      "id": 3,
      "content": "<EOS>",
      "single_word": false,
      "lstrip": false,
      "rstrip": false,
      "normalized": false,
      "special": true
    },
    {
      "id": 4,
      "content": "<MASK>",
      "single_word": false,
      "lstrip": false,
      "rstrip": false,
      "normalized": false,
      "special": true
    }
  ],
  "normalizer": null,
  "pre_tokenizer": {
    "type": "Whitespace"
  },
  "post_processor": null,
  "decoder": null,
  "model": {
    "type": "BPE",
    "dropout": null,
    "unk_token": "<UNK>",
    "continuing_subword_prefix": null,
    "end_of_word_suffix": null,
    "fuse_unk": false,
    "byte_fallback": false,
    "ignore_merges": false,
    "vocab": {
      "<PAD>": 0,
      "<UNK>": 1,
      "<BOS>": 2,
      "<EOS>": 3,
      "<MASK>": 4,
      "\u0001": 5,
      "\u0002": 6,
      "\u0003": 7,
      "\u0004": 8,
      "\u0005": 9,
      "\u0006": 10,
      "\u0007": 11,
      "\b": 12,
      "\u000e": 13,
      "\u000f": 14,
      "\u0010": 15,
      "\u0011": 16,
      "\u0012": 17,
      "\u0013": 18,
      "\u0014": 19,
      "\u0015": 20,
      "\u0016": 21,
      "\u0017": 22,
      "\u0018": 23,
      "\u0019": 24,
      "\u001a": 25,
      "\u001b": 26,
      "\u001c": 27,
      "\u001d": 28,
      "\u001e": 29,
      "\u001f": 30,
      "!": 31,
      "\"": 32,
      "#": 33,
      "$": 34,
      "%": 35,
      "&": 36,
      "'": 37,
      "(": 38,
      ")": 39,
      "*": 40,
      "+": 41,
      ",": 42,
      "-": 43,
      ".": 44,
      "/": 45,
      "0": 46,
      "1": 47,
      "2": 48,
      "3": 49,
      "4": 50,
      "5": 51,
      "6": 52,
      "7": 53,
      "8": 54,
      "9": 55,
      ":": 56,
      ";": 57,
      "<": 58,
      "=": 59,
      ">": 60,
      "?": 61,
      "@": 62,
      "A": 63,
      "B": 64,
      "C": 65,
      "D": 66,
      "E": 67,
      "F": 68,
      "G": 69,
      "H": 70,
      "I": 71,
      "J": 72,
      "K": 73,
      "L": 74,
      "M": 75,
      "N": 76,
      "O": 77,
      "P": 78,
      "Q": 79,
      "R": 80,
      "S": 81,
      "T": 82,
      "U": 83,
      "V": 84,
      "W": 85,
      "X": 86,
      "Y": 87,
      "Z": 88,
      "[": 89,
      "\\": 90,
      "]": 91,
      "^": 92,
      "_": 93,
      "`": 94,
      "a": 95,
      "b": 96,
      "c": 97,
      "d": 98,
      "e": 99,
      "f": 100,
      "g": 101,
      "h": 102,
      "i": 103,
      "j": 104,
      "k": 105,
      "l": 106,
      "m": 107,
      "n": 108,
      "o": 109,
      "p": 110,
      "q": 111,
      "r": 112,
      "s": 113,
      "t": 114,
      "u": 115,
      "v": 116,
      "w": 117,
      "x": 118,
      "y": 119,
      "z": 120,
      "{": 121,
      "|": 122,
      "}": 123,
      "~": 124,
      "": 125,
      "": 126,
      "": 127,
      "": 128,
      "": 129,
      "": 130,
      "": 131,
      "": 132,
      "": 133,
      "": 134,
      "": 135,
      "¡": 136,
      "¢": 137,
      "£": 138,
      "¤": 139,
      "¥": 140,
      "¦": 141,
      "§": 142,
      "¨": 143,
      "©": 144,
      "ª": 145,
      "«": 146,
      "¬": 147,
      "­": 148,
      "®": 149,
      "¯": 150,
      "°": 151,
      "±": 152,
      "²": 153,
      "³": 154,
      "´": 155,
      "µ": 156,
      "¶": 157,
      "·": 158,
      "¸": 159,
      "¹": 160,
      "º": 161,
      "»": 162,
      "¼": 163,
      "½": 164,
      "¾": 165,
      "À": 166,
      "Á": 167,
      "Â": 168,
      "Ã": 169,
      "Ä": 170,
      "Å": 171,
      "Æ": 172,
      "Ç": 173,
      "È": 174,
      "É": 175,
      "Ê": 176,
      "Ë": 177,
      "Ì": 178,
      "Í": 179,
      "Î": 180,
      "Ï": 181,
      "Ð": 182,
      "Ñ": 183,
      "Ò": 184,
      "Ó": 185,
      "Ô": 186,
      "Õ": 187,
      "Ö": 188,
      "×": 189,
      "Ø": 190,
      "Ù": 191,
      "Ú": 192,
      "Û": 193,
      "Ü": 194,
      "Ý": 195,
      "Þ": 196,
      "ß": 197,
      "à": 198,
      "á": 199,
      "â": 200,
      "ã": 201,
      "ä": 202,
      "å": 203,
      "æ": 204,
      "ç": 205,
      "è": 206,
      "é": 207,
      "ê": 208,
      "ë": 209,
      "ì": 210,
      "í": 211,
      "î": 212,
      "ï": 213,
      "ð": 214,
      "ñ": 215,
      "ò": 216,
      "ó": 217,
      "ô": 218,
      "õ": 219,
      "ö": 220,
      "÷": 221,
      "ø": 222,
      "ù": 223,
      "ú": 224,
      "û": 225,
      "ü": 226,
      "ý": 227,
      "þ": 228,
      "ÿ": 229,
      "ā": 230,
      "ă": 231,
      "Ć": 232,
      "ć": 233,
      "Č": 234,
      "č": 235,
      "Đ": 236,
      "ē": 237,
      "ĕ": 238,
      "ė": 239,
      "ę": 240,
      "ě": 241,
      "ğ": 242,
      "Ġ": 243,
      "Ģ": 244,
      "ĩ": 245,
      "ī": 246,
      "İ": 247,
      "ı": 248,
      "ľ": 249,
      "Ł": 250,
      "ł": 251,
      "ń": 252,
      "ņ": 253,
      "ň": 254,
      "ō": 255,
      "Œ": 256,
      "œ": 257,
      "Ś": 258,
      "ś": 259,
      "Ş": 260,
      "ş": 261,
      "Š": 262,
      "š": 263,
      "Ţ": 264,
      "ţ": 265,
      "ū": 266,
      "Ÿ": 267,
      "Ž": 268,
      "ž": 269,
      "Ɔ": 270,
      "ƒ": 271,
      "ɔ": 272,
      "ɛ": 273,
      "ʔ": 274,
      "ˆ": 275,
      "ˇ": 276,
      "˜": 277,
      "́": 278,
      "̱": 279,
      ";": 280,
      "Γ": 281,
      "Δ": 282,
      "Ε": 283,
      "Ν": 284,
      "Σ": 285,
      "Υ": 286,
      "Χ": 287,
      "Ψ": 288,
      "ά": 289,
      "έ": 290,
      "ή": 291,
      "ί": 292,
      "α": 293,
      "β": 294,
      "γ": 295,
      "δ": 296,
      "ε": 297,
      "η": 298,
      "θ": 299,
      "ι": 300,
      "κ": 301,
      "λ": 302,
      "μ": 303,
      "ν": 304,
      "ο": 305,
      "π": 306,
      "ρ": 307,
      "σ": 308,
      "τ": 309,
      "υ": 310,
      "φ": 311,
      "ύ": 312,
      "а": 313,
      "е": 314,
      "н": 315,
      "о": 316,
      "р": 317,
      "с": 318,
      "ш": 319,
      "إ": 320,
      "ا": 321,
      "ب": 322,
      "ة": 323,
      "ت": 324,
      "ح": 325,
      "ذ": 326,
      "ر": 327,
      "س": 328,
      "ش": 329,
      "ص": 330,
      "ع": 331,
      "غ": 332,
      "ف": 333,
      "ك": 334,
      "ل": 335,
      "م": 336,
      "ن": 337,
      "ه": 338,
      "و": 339,
      "ي": 340,
      "‎": 341,
      "‑": 342,
      "–": 343,
      "—": 344,
      "―": 345,
      "‘": 346,
      "’": 347,
      "‚": 348,
      "“": 349,
      "”": 350,
      "„": 351,
      "†": 352,
      "‡": 353,
      "•": 354,
      "…": 355,
      "‰": 356,
      "′": 357,
      "›": 358,
      "⁄": 359,
      "€": 360,
      "™": 361,
      "→": 362,
      "∂": 363,
      "−": 364,
      "∗": 365,
      "∙": 366,
      "√": 367,
      "≈": 368,
      "≡": 369,
      "≤": 370,
      "≥": 371,
      "②": 372,
      "▪": 373,
      "►": 374,
      "◊": 375,
      "○": 376,
      "●": 377,
      "◦": 378,
      "♦": 379,
      "➤": 380,
      "": 381,
      "": 382,
      "": 383,
      "": 384,
      "": 385,
      "": 386,
      "": 387,
      "": 388,
      "ﬀ": 389,
      "ﬁ": 390,
      "ﬂ": 391,
      "ﬃ": 392,
      "﷓": 393,
      "＜": 394,
      "＞": 395,
      "�": 396,
      "es": 397,
      "on": 398,
      "en": 399,
      "ti": 400,
      "an": 401,
      "in": 402,
      "er": 403,
      "th": 404,
      "re": 405,
      "de": 406,
      "tion": 407,
      "or": 408,
      "is": 409,
      "ent": 410,
      "le": 411,
      "ou": 412,
      "the": 413,
      "al": 414,
      "it": 415,
      "ar": 416,
      "la": 417,
      "pr": 418,
      "ation": 419,
      "te": 420,
      "qu": 421,
      "et": 422,
      "of": 423,
      "om": 424,
      "ment": 425,
      "ur": 426,
      "ic": 427,
      "and": 428,
      "at": 429,
      "as": 430,
      "tr": 431,
      "au": 432,
      "les": 433,
      "ce": 434,
      "un": 435,
      "des": 436,
      "to": 437,
      "il": 438,
      "con": 439,
      "se": 440,
      "ve": 441,
      "si": 442,
      "du": 443,
      "ac": 444,
      "pro": 445,
      "ing": 446,
      "our": 447,
      "for": 448,
      "ch": 449,
      "me": 450,
      "par": 451,
      "ad": 452,
      "ir": 453,
      "ant": 454,
      "ne": 455,
      "ra": 456,
      "li": 457,
      "que": 458,
      "com": 459,
      "ter": 460,
      "su": 461,
      "ci": 462,
      "ta": 463,
      "lo": 464,
      "pe": 465,
      "00": 466,
      "ed": 467,
      "po": 468,
      "di": 469,
      "ans": 470,
      "ré": 471,
      "res": 472,
      "ag": 473,
      "dé": 474,
      "ver": 475,
      "he": 476,
      "us": 477,
      "ri": 478,
      "ex": 479,
      "por": 480,
      "ap": 481,
      "és": 482,
      "ces": 483,
      "ol": 484,
      "200": 485,
      "per": 486,
      "be": 487,
      "ma": 488,
      "ts": 489,
      "ro": 490,
      "ations": 491,
      "pl": 492,
      "ab": 493,
      "vi": 494,
      "té": 495,
      "ff": 496,
      "no": 497,
      "sur": 498,
      "ont": 499,
      "pour": 500,
      "el": 501,
      "aux": 502,
      "im": 503,
      "st": 504,
      "sion": 505,
      "est": 506,
      "ate": 507,
      "tu": 508,
      "ire": 509,
      "une": 510,
      "mb": 511,
      "tin": 512,
      "ec": 513,
      "ly": 514,
      "tions": 515,
      "tre": 516,
      "min": 517,
      "dans": 518,
      "The": 519,
      "ité": 520,
      "av": 521,
      "mo": 522,
      "that": 523,
      "ion": 524,
      "so": 525,
      "ul": 526,
      "port": 527,
      "ser": 528,
      "ig": 529,
      "anad": 530,
      "op": 531,
      "end": 532,
      "ance": 533,
      "am": 534,
      "form": 535,
      "ith": 536,
      "pu": 537,
      "qui": 538,
      "In": 539,
      "ques": 540,
      "ments": 541,
      "ity": 542,
      "co": 543,
      "ers": 544,
      "comm": 545,
      "né": 546,
      "ence": 547,
      "Com": 548,
      "are": 549,
      "mes": 550,
      "with": 551,
      "Canad": 552,
      "ction": 553,
      "tic": 554,
      "ous": 555,
      "ted": 556,
      "tive": 557,
      "ie": 558,
      "mis": 559,
      "der": 560,
      "man": 561,
      "ten": 562,
      "inter": 563,
      "by": 564,
      "oun": 565,
      "ins": 566,
      "its": 567,
      "ale": 568,
      "gra": 569,
      "nation": 570,
      "lu": 571,
      "age": 572,
      "ge": 573,
      "fr": 574,
      "ay": 575,
      "ting": 576,
      "ni": 577,
      "urs": 578,
      "ave": 579,
      "wh": 580,
      "fic": 581,
      "dis": 582,
      "bl": 583,
      "19": 584,
      "mp": 585,
      "ait": 586,
      "ther": 587,
      "ses": 588,
      "son": 589,
      "ven": 590,
      "cu": 591,
      "ill": 592,
      "Con": 593,
      "fin": 594,
      "bu": 595,
      "do": 596,
      "str": 597,
      "Le": 598,
      "vic": 599,
      "ob": 600,
      "ée": 601,
      "Canada": 602,
      "ain": 603,
      "all": 604,
      "gr": 605,
      "vis": 606,
      "tiv": 607,
      "ties": 608,
      "cer": 609,
      "id": 610,
      "ct": 611,
      "ér": 612,
      "comp": 613,
      "tat": 614,
      "ég": 615,
      "velo": 616,
      "air": 617,
      "out": 618,
      "gu": 619,
      "lement": 620,
      "ère": 621,
      "gram": 622,
      "ies": 623,
      "national": 624,
      "ord": 625,
      "sh": 626,
      "ist": 627,
      "velop": 628,
      "aire": 629,
      "ld": 630,
      "ble": 631,
      "cial": 632,
      "pas": 633,
      "fi": 634,
      "ard": 635,
      "gh": 636,
      "ai": 637,
      "vo": 638,
      "gan": 639,
      "pré": 640,
      "sé": 641,
      "ants": 642,
      "pon": 643,
      "mission": 644,
      "Re": 645,
      "ph": 646,
      "inc": 647,
      "La": 648,
      "ari": 649,
      "able": 650,
      "été": 651,
      "ure": 652,
      "ures": 653,
      "Les": 654,
      "ere": 655,
      "ien": 656,
      "ork": 657,
      "formation": 658,
      "contr": 659,
      "was": 660,
      "sont": 661,
      "ite": 662,
      "ary": 663,
      "from": 664,
      "sa": 665,
      "plus": 666,
      "pre": 667,
      "over": 668,
      "acc": 669,
      "entre": 670,
      "enti": 671,
      "ées": 672,
      "ux": 673,
      "pres": 674,
      "En": 675,
      "program": 676,
      "parti": 677,
      "pos": 678,
      "pri": 679,
      "Un": 680,
      "eff": 681,
      "pé": 682,
      "not": 683,
      "mon": 684,
      "ine": 685,
      "ités": 686,
      "val": 687,
      "we": 688,
      "mar": 689,
      "ould": 690,
      "titu": 691,
      "ren": 692,
      "nement": 693,
      "servic": 694,
      "cess": 695,
      "mé": 696,
      "De": 697,
      "emp": 698,
      "cip": 699,
      "person": 700,
      "ue": 701,
      "organ": 702,
      "aires": 703,
      "Pro": 704,
      "ich": 705,
      "gé": 706,
      "jec": 707,
      "rec": 708,
      "part": 709,
      "che": 710,
      "fo": 711,
      "prés": 712,
      "tif": 713,
      "sta": 714,
      "sy": 715,
      "ès": 716,
      "vent": 717,
      "commun": 718,
      "work": 719,
      ").": 720,
      "__": 721,
      "ear": 722,
      "nu": 723,
      "ke": 724,
      "rap": 725,
      "199": 726,
      "cur": 727,
      "ors": 728,
      "produ": 729,
      "ded": 730,
      "mber": 731,
      "this": 732,
      "lle": 733,
      "Th": 734,
      "tes": 735,
      "cour": 736,
      "pla": 737,
      "ouver": 738,
      "blic": 739,
      "éta": 740,
      "ture": 741,
      "fer": 742,
      "reg": 743,
      "présent": 744,
      "jet": 745,
      "will": 746,
      "nes": 747,
      "ase": 748,
      "cri": 749,
      "Par": 750,
      "iz": 751,
      "mit": 752,
      "avec": 753,
      "bil": 754,
      "rela": 755,
      "ges": 756,
      "ach": 757,
      "vir": 758,
      "has": 759,
      "rou": 760,
      "sub": 761,
      "dro": 762,
      "trans": 763,
      "od": 764,
      "ons": 765,
      "tres": 766,
      "don": 767,
      "ique": 768,
      "olu": 769,
      "information": 770,
      "être": 771,
      "have": 772,
      "ail": 773,
      "fe": 774,
      "which": 775,
      "isation": 776,
      "ient": 777,
      "ding": 778,
      "pris": 779,
      "ays": 780,
      "lation": 781,
      "lic": 782,
      "),": 783,
      "Commission": 784,
      "10": 785,
      "til": 786,
      "As": 787,
      "Ch": 788,
      "oc": 789,
      "soci": 790,
      "ette": 791,
      "low": 792,
      "2007": 793,
      "ish": 794,
      "ut": 795,
      "sed": 796,
      "posi": 797,
      "their": 798,
      "cis": 799,
      "tives": 800,
      "viron": 801,
      "dic": 802,
      "ated": 803,
      "log": 804,
      "act": 805,
      "lar": 806,
      "fon": 807,
      "chan": 808,
      "met": 809,
      "ais": 810,
      "ales": 811,
      "col": 812,
      "conom": 813,
      "sou": 814,
      "sul": 815,
      "ents": 816,
      "int": 817,
      "tique": 818,
      "igh": 819,
      "trav": 820,
      "public": 821,
      "one": 822,
      "eral": 823,
      "respon": 824,
      "ibu": 825,
      "ew": 826,
      "ty": 827,
      "elle": 828,
      "overn": 829,
      "minis": 830,
      "lec": 831,
      "um": 832,
      "non": 833,
      "ines": 834,
      "gen": 835,
      "cons": 836,
      "import": 837,
      "lan": 838,
      "concer": 839,
      "ouve": 840,
      "ves": 841,
      "eur": 842,
      "appro": 843,
      "tra": 844,
      "ON": 845,
      "tats": 846,
      "plic": 847,
      "mi": 848,
      "aut": 849,
      "cent": 850,
      "sup": 851,
      "leur": 852,
      "rég": 853,
      "ities": 854,
      "2008": 855,
      "go": 856,
      "ls": 857,
      "mil": 858,
      "services": 859,
      "tis": 860,
      "spe": 861,
      "rit": 862,
      "emplo": 863,
      "bre": 864,
      "provi": 865,
      "pend": 866,
      "inclu": 867,
      "Sec": 868,
      "cas": 869,
      "other": 870,
      "under": 871,
      "uation": 872,
      "ru": 873,
      "imp": 874,
      "ions": 875,
      "hu": 876,
      "ème": 877,
      "diff": 878,
      "ens": 879,
      "ress": 880,
      "nom": 881,
      "coun": 882,
      "géné": 883,
      "ticle": 884,
      "also": 885,
      "Nations": 886,
      "international": 887,
      "2006": 888,
      "sig": 889,
      "lig": 890,
      "develop": 891,
      "ip": 892,
      "autres": 893,
      "20": 894,
      "vention": 895,
      "requ": 896,
      "ian": 897,
      "ong": 898,
      "ources": 899,
      "ice": 900,
      "can": 901,
      "tiques": 902,
      "ef": 903,
      "memb": 904,
      "teur": 905,
      "car": 906,
      "ited": 907,
      "were": 908,
      "semb": 909,
      "bor": 910,
      "cé": 911,
      "pays": 912,
      "ju": 913,
      "aff": 914,
      "environ": 915,
      "iti": 916,
      "ace": 917,
      "men": 918,
      "ree": 919,
      "vers": 920,
      "AA": 921,
      "ste": 922,
      "ms": 923,
      "Il": 924,
      "ris": 925,
      "lles": 926,
      "ner": 927,
      "ères": 928,
      "lé": 929,
      "been": 930,
      "mer": 931,
      "duc": 932,
      "tech": 933,
      "poli": 934,
      "consi": 935,
      "ative": 936,
      "Ar": 937,
      "inté": 938,
      "seil": 939,
      "bas": 940,
      "main": 941,
      "pement": 942,
      "grou": 943,
      "activ": 944,
      "cy": 945,
      "bli": 946,
      "bo": 947,
      "ial": 948,
      "ES": 949,
      "contin": 950,
      "dévelop": 951,
      "leurs": 952,
      "Eur": 953,
      "tain": 954,
      "plan": 955,
      "fication": 956,
      "overnment": 957,
      "tro": 958,
      "effec": 959,
      "fac": 960,
      "ope": 961,
      "led": 962,
      "ow": 963,
      "fait": 964,
      "ia": 965,
      "applic": 966,
      "abil": 967,
      "cap": 968,
      "ust": 969,
      "partic": 970,
      "sit": 971,
      "ral": 972,
      "travail": 973,
      "12": 974,
      "use": 975,
      "finan": 976,
      "On": 977,
      "2005": 978,
      "olution": 979,
      "cette": 980,
      "No": 981,
      "jour": 982,
      "eng": 983,
      "qual": 984,
      "cla": 985,
      "mand": 986,
      "cep": 987,
      "sus": 988,
      "ese": 989,
      "ass": 990,
      "oper": 991,
      "year": 992,
      "ences": 993,
      "indi": 994,
      "countr": 995,
      "tee": 996,
      "leg": 997,
      "mat": 998,
      "ds": 999,
      "ww": 1000,
      "15": 1001,
      "projet": 1002,
      "Europe": 1003,
      "nées": 1004,
      "AN": 1005,
      "vre": 1006,
      "organis": 1007,
      "prin": 1008,
      "loc": 1009,
      "For": 1010,
      "tout": 1011,
      "vé": 1012,
      "An": 1013,
      "ide": 1014,
      "dur": 1015,
      "up": 1016,
      "alement": 1017,
      "ved": 1018,
      "employ": 1019,
      "gouver": 1020,
      "ical": 1021,
      "TI": 1022,
      "ret": 1023,
      "ang": 1024,
      "dev": 1025,
      "util": 1026,
      "développement": 1027,
      "mun": 1028,
      "conf": 1029,
      "13": 1030,
      "docu": 1031,
      "Au": 1032,
      "Min": 1033,
      "view": 1034,
      "agement": 1035,
      "teurs": 1036,
      "ome": 1037,
      "particip": 1038,
      "dent": 1039,
      "tru": 1040,
      "tho": 1041,
      "oir": 1042,
      "ssi": 1043,
      "righ": 1044,
      "ess": 1045,
      "nouve": 1046,
      "four": 1047,
      "ils": 1048,
      "ports": 1049,
      "United": 1050,
      "Inter": 1051,
      "____": 1052,
      "should": 1053,
      "present": 1054,
      "appe": 1055,
      "more": 1056,
      "programme": 1057,
      "dom": 1058,
      "pen": 1059,
      "comme": 1060,
      "Al": 1061,
      "CE": 1062,
      "cor": 1063,
      "Stat": 1064,
      "time": 1065,
      "rés": 1066,
      "ille": 1067,
      "sible": 1068,
      "contribu": 1069,
      "concern": 1070,
      "action": 1071,
      "11": 1072,
      "Conseil": 1073,
      "Coun": 1074,
      "eu": 1075,
      "os": 1076,
      "Commit": 1077,
      "Ser": 1078,
      "stru": 1079,
      "polic": 1080,
      "prote": 1081,
      "cré": 1082,
      "cher": 1083,
      "ances": 1084,
      "iss": 1085,
      "prom": 1086,
      "place": 1087,
      "had": 1088,
      "It": 1089,
      "adop": 1090,
      "any": 1091,
      "acti": 1092,
      "tifs": 1093,
      "IN": 1094,
      "iques": 1095,
      "sui": 1096,
      "land": 1097,
      "cil": 1098,
      "ber": 1099,
      "ory": 1100,
      "new": 1101,
      "clu": 1102,
      "Ac": 1103,
      "péri": 1104,
      "inv": 1105,
      "droits": 1106,
      "Me": 1107,
      "issu": 1108,
      "Committee": 1109,
      "deux": 1110,
      "elles": 1111,
      "termin": 1112,
      "objec": 1113,
      "king": 1114,
      "ild": 1115,
      "près": 1116,
      "ante": 1117,
      "Canadian": 1118,
      "vision": 1119,
      "princip": 1120,
      "offic": 1121,
      "Uni": 1122,
      "fé": 1123,
      "ound": 1124,
      "tant": 1125,
      "would": 1126,
      "respe": 1127,
      "rough": 1128,
      "ign": 1129,
      "États": 1130,
      "18": 1131,
      "Gen": 1132,
      "2004": 1133,
      "ib": 1134,
      "labor": 1135,
      "position": 1136,
      "personne": 1137,
      "development": 1138,
      "vant": 1139,
      "publi": 1140,
      "article": 1141,
      "canad": 1142,
      "30": 1143,
      "but": 1144,
      "cre": 1145,
      "rapport": 1146,
      "such": 1147,
      "sel": 1148,
      "voir": 1149,
      "également": 1150,
      "recomm": 1151,
      "ational": 1152,
      "EN": 1153,
      "bet": 1154,
      "ud": 1155,
      "ally": 1156,
      "UN": 1157,
      "aient": 1158,
      "ks": 1159,
      "dition": 1160,
      "States": 1161,
      "change": 1162,
      "ult": 1163,
      "Ex": 1164,
      "ran": 1165,
      "sions": 1166,
      "amp": 1167,
      "alth": 1168,
      "nombre": 1169,
      "initi": 1170,
      "cad": 1171,
      "cours": 1172,
      "Co": 1173,
      "ful": 1174,
      "jus": 1175,
      "ular": 1176,
      "ainsi": 1177,
      "14": 1178,
      "syste": 1179,
      "ates": 1180,
      "institu": 1181,
      "ile": 1182,
      "group": 1183,
      "prof": 1184,
      "char": 1185,
      "opér": 1186,
      "Council": 1187,
      "This": 1188,
      "there": 1189,
      "déc": 1190,
      "pli": 1191,
      "Or": 1192,
      "économ": 1193,
      "sous": 1194,
      "lations": 1195,
      "canadien": 1196,
      "ues": 1197,
      "cision": 1198,
      "adminis": 1199,
      "tal": 1200,
      "tari": 1201,
      "Servic": 1202,
      "sibil": 1203,
      "isse": 1204,
      "aly": 1205,
      "ages": 1206,
      "service": 1207,
      "Ad": 1208,
      "trait": 1209,
      "ature": 1210,
      "faire": 1211,
      "gestion": 1212,
      "ême": 1213,
      "dustr": 1214,
      "human": 1215,
      "ets": 1216,
      "consul": 1217,
      "may": 1218,
      "wel": 1219,
      "peut": 1220,
      "parag": 1221,
      "if": 1222,
      "reas": 1223,
      "rais": 1224,
      "sure": 1225,
      "vin": 1226,
      "éval": 1227,
      "gouvernement": 1228,
      "now": 1229,
      "blish": 1230,
      "cho": 1231,
      "ats": 1232,
      "ned": 1233,
      "effor": 1234,
      "cus": 1235,
      "curité": 1236,
      "Convention": 1237,
      "mbre": 1238,
      "tou": 1239,
      "peri": 1240,
      "mais": 1241,
      "ca": 1242,
      "identi": 1243,
      "Program": 1244,
      "milli": 1245,
      "these": 1246,
      "who": 1247,
      "atég": 1248,
      "nal": 1249,
      "ject": 1250,
      "ric": 1251,
      "--": 1252,
      "We": 1253,
      "ires": 1254,
      "lég": 1255,
      "bien": 1256,
      "spé": 1257,
      "sec": 1258,
      "17": 1259,
      "èg": 1260,
      "ollow": 1261,
      "endre": 1262,
      "ition": 1263,
      "than": 1264,
      "nex": 1265,
      "tement": 1266,
      "tous": 1267,
      "mise": 1268,
      "Comité": 1269,
      "popu": 1270,
      "require": 1271,
      "CO": 1272,
      "II": 1273,
      "nationale": 1274,
      "activités": 1275,
      "anti": 1276,
      "they": 1277,
      "serv": 1278,
      "ural": 1279,
      "cle": 1280,
      "tent": 1281,
      "Off": 1282,
      "nous": 1283,
      "ss": 1284,
      "DE": 1285,
      "fun": 1286,
      "through": 1287,
      "ctor": 1288,
      "Sta": 1289,
      "syst": 1290,
      "mental": 1291,
      "programmes": 1292,
      "000": 1293,
      "direc": 1294,
      "ards": 1295,
      "nements": 1296,
      "General": 1297,
      "16": 1298,
      "nor": 1299,
      "important": 1300,
      "ateg": 1301,
      "fore": 1302,
      "tation": 1303,
      "sécurité": 1304,
      "accord": 1305,
      "into": 1306,
      "hom": 1307,
      "question": 1308,
      "éli": 1309,
      "amen": 1310,
      "eurs": 1311,
      "Minis": 1312,
      "ton": 1313,
      "Res": 1314,
      "Se": 1315,
      "gi": 1316,
      "protection": 1317,
      "nolog": 1318,
      "point": 1319,
      "anté": 1320,
      "als": 1321,
      "support": 1322,
      "cadre": 1323,
      "Grou": 1324,
      "ise": 1325,
      "dit": 1326,
      "inte": 1327,
      "ween": 1328,
      "rale": 1329,
      "rait": 1330,
      "bles": 1331,
      "région": 1332,
      "membres": 1333,
      "contre": 1334,
      "consider": 1335,
      "application": 1336,
      "Assemb": 1337,
      "mati": 1338,
      "countries": 1339,
      "session": 1340,
      "ll": 1341,
      "effic": 1342,
      "follow": 1343,
      "cau": 1344,
      "ément": 1345,
      "enne": 1346,
      "plo": 1347,
      "rent": 1348,
      "leve": 1349,
      "between": 1350,
      "peu": 1351,
      "ced": 1352,
      "avoir": 1353,
      "prior": 1354,
      "get": 1355,
      "tex": 1356,
      "mesures": 1357,
      "omen": 1358,
      "avant": 1359,
      "mment": 1360,
      "fonction": 1361,
      "enf": 1362,
      "née": 1363,
      "tw": 1364,
      "Des": 1365,
      "amin": 1366,
      "report": 1367,
      "ater": 1368,
      "very": 1369,
      "capac": 1370,
      "atives": 1371,
      "2003": 1372,
      "communic": 1373,
      "thor": 1374,
      "ulture": 1375,
      "implement": 1376,
      "seig": 1377,
      "personnes": 1378,
      "opé": 1379,
      "même": 1380,
      "med": 1381,
      "irst": 1382,
      "dire": 1383,
      "ER": 1384,
      "Mar": 1385,
      "2002": 1386,
      "droit": 1387,
      "ables": 1388,
      "including": 1389,
      "need": 1390,
      "AC": 1391,
      "speci": 1392,
      "social": 1393,
      "industr": 1394,
      "conomic": 1395,
      "..": 1396,
      "représent": 1397,
      "crimin": 1398,
      "25": 1399,
      "hip": 1400,
      "long": 1401,
      "stand": 1402,
      "particu": 1403,
      "dont": 1404,
      "els": 1405,
      "tical": 1406,
      "questions": 1407,
      "ordin": 1408,
      "ving": 1409,
      "high": 1410,
      "commer": 1411,
      "ating": 1412,
      "esta": 1413,
      "ducation": 1414,
      "eting": 1415,
      "io": 1416,
      "ning": 1417,
      "ditions": 1418,
      "rights": 1419,
      "cal": 1420,
      "ration": 1421,
      "nécess": 1422,
      "utilis": 1423,
      "étu": 1424,
      "organiz": 1425,
      "érence": 1426,
      "continu": 1427,
      "jur": 1428,
      "tention": 1429,
      "indic": 1430,
      "analy": 1431,
      "document": 1432,
      "conn": 1433,
      "meas": 1434,
      "permet": 1435,
      "RE": 1436,
      "fu": 1437,
      "mande": 1438,
      "fem": 1439,
      "situation": 1440,
      "Ce": 1441,
      "je": 1442,
      "Bo": 1443,
      "dra": 1444,
      "made": 1445,
      "shall": 1446,
      "efforts": 1447,
      "IS": 1448,
      "law": 1449,
      "parties": 1450,
      "nive": 1451,
      "fa": 1452,
      "environnement": 1453,
      "Dans": 1454,
      "red": 1455,
      "iste": 1456,
      "force": 1457,
      "establish": 1458,
      "fam": 1459,
      "assur": 1460,
      "tribu": 1461,
      "aussi": 1462,
      "était": 1463,
      "oi": 1464,
      "IC": 1465,
      "inform": 1466,
      "technolog": 1467,
      "ôle": 1468,
      "provin": 1469,
      "ters": 1470,
      "He": 1471,
      "well": 1472,
      "particuli": 1473,
      "cli": 1474,
      "promo": 1475,
      "examin": 1476,
      "cro": 1477,
      "proces": 1478,
      "premi": 1479,
      "Government": 1480,
      "Ré": 1481,
      "sp": 1482,
      "Commun": 1483,
      "Su": 1484,
      "net": 1485,
      "fourn": 1486,
      "ption": 1487,
      "comple": 1488,
      "constitu": 1489,
      "child": 1490,
      "vities": 1491,
      "AR": 1492,
      "certa": 1493,
      "government": 1494,
      "2001": 1495,
      "afin": 1496,
      "aine": 1497,
      "those": 1498,
      "EC": 1499,
      "ference": 1500,
      "off": 1501,
      "matière": 1502,
      "198": 1503,
      "fois": 1504,
      "provide": 1505,
      "temp": 1506,
      "bal": 1507,
      "résul": 1508,
      "earch": 1509,
      "jo": 1510,
      "lin": 1511,
      "Qu": 1512,
      "his": 1513,
      "ack": 1514,
      "ety": 1515,
      "demand": 1516,
      "Man": 1517,
      "demande": 1518,
      "conditions": 1519,
      "prises": 1520,
      "must": 1521,
      "doit": 1522,
      "European": 1523,
      "opération": 1524,
      "order": 1525,
      "rele": 1526,
      "AAAA": 1527,
      "publique": 1528,
      "Unies": 1529,
      "europé": 1530,
      "général": 1531,
      "some": 1532,
      "come": 1533,
      "partie": 1534,
      "mig": 1535,
      "af": 1536,
      "unal": 1537,
      "march": 1538,
      "system": 1539,
      "autor": 1540,
      "50": 1541,
      "Dire": 1542,
      "management": 1543,
      "Cour": 1544,
      "only": 1545,
      "vari": 1546,
      "iter": 1547,
      "tric": 1548,
      "pur": 1549,
      "puis": 1550,
      "gue": 1551,
      "ople": 1552,
      "lors": 1553,
      "duction": 1554,
      "lection": 1555,
      "mark": 1556,
      "ban": 1557,
      "ressources": 1558,
      "Organ": 1559,
      "actu": 1560,
      "nota": 1561,
      "www": 1562,
      "vue": 1563,
      "produc": 1564,
      "facil": 1565,
      "possible": 1566,
      "règ": 1567,
      "TION": 1568,
      "bud": 1569,
      "Dé": 1570,
      "cou": 1571,
      "santé": 1572,
      "tice": 1573,
      "lui": 1574,
      "two": 1575,
      "Act": 1576,
      "établ": 1577,
      "activities": 1578,
      "tration": 1579,
      "fied": 1580,
      "respons": 1581,
      "Mo": 1582,
      "ht": 1583,
      "exer": 1584,
      "nature": 1585,
      "22": 1586,
      "site": 1587,
      "meeting": 1588,
      "rece": 1589,
      "sive": 1590,
      "2000": 1591,
      "Tri": 1592,
      "Pr": 1593,
      "cherche": 1594,
      "process": 1595,
      "where": 1596,
      "stratég": 1597,
      "femmes": 1598,
      "exper": 1599,
      "number": 1600,
      "moy": 1601,
      "compte": 1602,
      "bes": 1603,
      "date": 1604,
      "ft": 1605,
      "ak": 1606,
      "pte": 1607,
      "set": 1608,
      "table": 1609,
      "données": 1610,
      "pendant": 1611,
      "To": 1612,
      "Ag": 1613,
      "mul": 1614,
      "day": 1615,
      "taire": 1616,
      "years": 1617,
      "tenir": 1618,
      "tor": 1619,
      "conclu": 1620,
      "addition": 1621,
      "collec": 1622,
      "plu": 1623,
      "améli": 1624,
      "dat": 1625,
      "author": 1626,
      "region": 1627,
      "soit": 1628,
      "mal": 1629,
      "éri": 1630,
      "moins": 1631,
      "cture": 1632,
      "Wh": 1633,
      "mor": 1634,
      "positions": 1635,
      "within": 1636,
      "29": 1637,
      "Article": 1638,
      "œu": 1639,
      "particular": 1640,
      "financi": 1641,
      "rési": 1642,
      "amélior": 1643,
      "At": 1644,
      "istance": 1645,
      "23": 1646,
      "women": 1647,
      "mu": 1648,
      "sans": 1649,
      "système": 1650,
      "après": 1651,
      "Pour": 1652,
      "èmes": 1653,
      "ast": 1654,
      "appropri": 1655,
      "vidu": 1656,
      "International": 1657,
      "Office": 1658,
      "cond": 1659,
      "you": 1660,
      "appli": 1661,
      "Mr": 1662,
      "rie": 1663,
      "population": 1664,
      "respect": 1665,
      "concernant": 1666,
      "them": 1667,
      "ger": 1668,
      "inves": 1669,
      "att": 1670,
      "31": 1671,
      "procé": 1672,
      "tien": 1673,
      "esti": 1674,
      "about": 1675,
      "AL": 1676,
      "dre": 1677,
      "oblig": 1678,
      "territ": 1679,
      "row": 1680,
      "ati": 1681,
      "fact": 1682,
      "ry": 1683,
      "cha": 1684,
      "uni": 1685,
      "AT": 1686,
      "propo": 1687,
      "appu": 1688,
      "ession": 1689,
      "ctions": 1690,
      "gment": 1691,
      "rê": 1692,
      "commit": 1693,
      "operation": 1694,
      "urther": 1695,
      "répon": 1696,
      "stitu": 1697,
      "peuvent": 1698,
      "gar": 1699,
      "sess": 1700,
      "occu": 1701,
      "period": 1702,
      "24": 1703,
      "aw": 1704,
      "cra": 1705,
      "signi": 1706,
      "most": 1707,
      "Tr": 1708,
      "regis": 1709,
      "individu": 1710,
      "personnel": 1711,
      "notamment": 1712,
      "politique": 1713,
      "see": 1714,
      "OR": 1715,
      "vie": 1716,
      "Trib": 1717,
      "az": 1718,
      "ier": 1719,
      "associ": 1720,
      "UR": 1721,
      "Secret": 1722,
      "conform": 1723,
      "people": 1724,
      "ches": 1725,
      "stat": 1726,
      "évaluation": 1727,
      "tés": 1728,
      "train": 1729,
      "autre": 1730,
      "pou": 1731,
      "État": 1732,
      "ateurs": 1733,
      "niveau": 1734,
      "Tribunal": 1735,
      "clo": 1736,
      "PR": 1737,
      "forme": 1738,
      "policy": 1739,
      "ref": 1740,
      "avait": 1741,
      "enfants": 1742,
      "IT": 1743,
      "Pu": 1744,
      "prendre": 1745,
      "graph": 1746,
      "réal": 1747,
      "old": 1748,
      "again": 1749,
      "Is": 1750,
      "quent": 1751,
      "health": 1752,
      "exemp": 1753,
      "esp": 1754,
      "peti": 1755,
      "maj": 1756,
      "production": 1757,
      "based": 1758,
      "seignements": 1759,
      "her": 1760,
      "itation": 1761,
      "modi": 1762,
      "trois": 1763,
      "famil": 1764,
      "vil": 1765,
      "politiques": 1766,
      "institutions": 1767,
      "State": 1768,
      "impro": 1769,
      "tern": 1770,
      "ital": 1771,
      "raph": 1772,
      "crit": 1773,
      "inst": 1774,
      "section": 1775,
      "pério": 1776,
      "add": 1777,
      "lée": 1778,
      "represent": 1779,
      "ple": 1780,
      "quer": 1781,
      "________": 1782,
      "ization": 1783,
      "vous": 1784,
      "instru": 1785,
      "Develop": 1786,
      "ctive": 1787,
      "effective": 1788,
      "inf": 1789,
      "ership": 1790,
      "processus": 1791,
      "first": 1792,
      "missions": 1793,
      "aiss": 1794,
      "implementation": 1795,
      "sen": 1796,
      "review": 1797,
      "où": 1798,
      "quel": 1799,
      "26": 1800,
      "Po": 1801,
      "uses": 1802,
      "œuvre": 1803,
      "istère": 1804,
      "27": 1805,
      "28": 1806,
      "base": 1807,
      "Fin": 1808,
      "doi": 1809,
      "ck": 1810,
      "orld": 1811,
      "iser": 1812,
      "ali": 1813,
      "tenu": 1814,
      "élé": 1815,
      "level": 1816,
      "Service": 1817,
      "ensure": 1818,
      "derni": 1819,
      "provided": 1820,
      "doivent": 1821,
      "sex": 1822,
      "ply": 1823,
      "hy": 1824,
      "annu": 1825,
      "during": 1826,
      "Tra": 1827,
      "examen": 1828,
      "abit": 1829,
      "comb": 1830,
      "issues": 1831,
      "ask": 1832,
      "Programme": 1833,
      "vol": 1834,
      "know": 1835,
      "générale": 1836,
      "laboration": 1837,
      "ben": 1838,
      "economic": 1839,
      "ler": 1840,
      "Rap": 1841,
      "prim": 1842,
      "following": 1843,
      "being": 1844,
      "igin": 1845,
      "toutes": 1846,
      "ho": 1847,
      "then": 1848,
      "mettre": 1849,
      "pay": 1850,
      "Union": 1851,
      "oire": 1852,
      "considé": 1853,
      "40": 1854,
      "Ontari": 1855,
      "actions": 1856,
      "loi": 1857,
      "hel": 1858,
      "So": 1859,
      "tak": 1860,
      "discrimin": 1861,
      "take": 1862,
      "pec": 1863,
      "strateg": 1864,
      "ième": 1865,
      "Ontario": 1866,
      "différ": 1867,
      "résultats": 1868,
      "lable": 1869,
      "60": 1870,
      "New": 1871,
      "participation": 1872,
      "measures": 1873,
      "Nor": 1874,
      "Ro": 1875,
      "used": 1876,
      "when": 1877,
      "économique": 1878,
      "Af": 1879,
      "ince": 1880,
      "active": 1881,
      "essenti": 1882,
      "major": 1883,
      "homme": 1884,
      "way": 1885,
      "toute": 1886,
      "sci": 1887,
      "Ap": 1888,
      "ament": 1889,
      "bon": 1890,
      "ource": 1891,
      "dial": 1892,
      "lead": 1893,
      "let": 1894,
      "beso": 1895,
      "country": 1896,
      "AD": 1897,
      "lè": 1898,
      "sal": 1899,
      "increas": 1900,
      "transport": 1901,
      "produits": 1902,
      "gency": 1903,
      "suff": 1904,
      "issement": 1905,
      "fric": 1906,
      "importance": 1907,
      "documents": 1908,
      "reat": 1909,
      "recherche": 1910,
      "parten": 1911,
      "glo": 1912,
      "encour": 1913,
      "andid": 1914,
      "total": 1915,
      "constru": 1916,
      "ings": 1917,
      "both": 1918,
      "clear": 1919,
      "AP": 1920,
      "affec": 1921,
      "line": 1922,
      "dence": 1923,
      "1999": 1924,
      "21": 1925,
      "ints": 1926,
      "explo": 1927,
      "wever": 1928,
      "déclar": 1929,
      "suc": 1930,
      "spécial": 1931,
      "resul": 1932,
      "priv": 1933,
      "semble": 1934,
      "cause": 1935,
      "could": 1936,
      "Secré": 1937,
      "férence": 1938,
      "secur": 1939,
      "traite": 1940,
      ".,": 1941,
      "ariat": 1942,
      "fédé": 1943,
      "paragraph": 1944,
      "Loi": 1945,
      "nent": 1946,
      "signific": 1947,
      "resid": 1948,
      "avai": 1949,
      "raphe": 1950,
      "prise": 1951,
      "ande": 1952,
      "accès": 1953,
      "renseignements": 1954,
      "Centre": 1955,
      "jou": 1956,
      "pra": 1957,
      "temps": 1958,
      "each": 1959,
      "accoun": 1960,
      "case": 1961,
      "dure": 1962,
      "ability": 1963,
      "pose": 1964,
      "discus": 1965,
      "Di": 1966,
      "bec": 1967,
      "Development": 1968,
      "members": 1969,
      "Mon": 1970,
      "National": 1971,
      "ente": 1972,
      "ellement": 1973,
      "against": 1974,
      "Gu": 1975,
      "aide": 1976,
      "partment": 1977,
      "areas": 1978,
      "internationale": 1979,
      "Environ": 1980,
      "financial": 1981,
      "ancement": 1982,
      "Board": 1983,
      "surve": 1984,
      "regard": 1985,
      "inde": 1986,
      "recei": 1987,
      "techni": 1988,
      "cet": 1989,
      "Public": 1990,
      "br": 1991,
      "détermin": 1992,
      "usines": 1993,
      "differ": 1994,
      "équi": 1995,
      "limit": 1996,
      "cription": 1997,
      "continue": 1998,
      "ght": 1999,
      "pes": 2000,
      "children": 2001,
      "candid": 2002,
      "infr": 2003,
      "resolution": 2004,
      "many": 2005,
      "cisions": 2006,
      "CR": 2007,
      "vement": 2008,
      "raient": 2009,
      "ight": 2010,
      "har": 2011,
      "rad": 2012,
      "related": 2013,
      "profession": 2014,
      "Pre": 2015,
      "ped": 2016,
      "lectr": 2017,
      "résolution": 2018,
      "assistance": 2019,
      "cop": 2020,
      "security": 2021,
      "na": 2022,
      "rée": 2023,
      "recommand": 2024,
      "resources": 2025,
      "rique": 2026,
      "paragraphe": 2027,
      "dol": 2028,
      "ederal": 2029,
      "project": 2030,
      "sieurs": 2031,
      "mate": 2032,
      "cir": 2033,
      "access": 2034,
      "agric": 2035,
      "langu": 2036,
      "Minister": 2037,
      "portun": 2038,
      "antes": 2039,
      "relative": 2040,
      "less": 2041,
      "sera": 2042,
      "data": 2043,
      "Nous": 2044,
      "ok": 2045,
      "right": 2046,
      "assurer": 2047,
      "décision": 2048,
      "culture": 2049,
      "habit": 2050,
      "Te": 2051,
      "année": 2052,
      "probl": 2053,
      "rame": 2054,
      "dies": 2055,
      "Hu": 2056,
      "decision": 2057,
      "current": 2058,
      "dollar": 2059,
      "Cette": 2060,
      "ST": 2061,
      "sement": 2062,
      "bility": 2063,
      "accep": 2064,
      "communau": 2065,
      "budget": 2066,
      "occup": 2067,
      "réun": 2068,
      "défin": 2069,
      "available": 2070,
      "ism": 2071,
      "assess": 2072,
      "general": 2073,
      "Dis": 2074,
      "community": 2075,
      "abilité": 2076,
      "relations": 2077,
      "dou": 2078,
      "Services": 2079,
      "sor": 2080,
      "coordin": 2081,
      "compé": 2082,
      "faç": 2083,
      "provis": 2084,
      "quality": 2085,
      "invol": 2086,
      "Une": 2087,
      "bi": 2088,
      "agree": 2089,
      "note": 2090,
      "appel": 2091,
      "alité": 2092,
      "core": 2093,
      "augment": 2094,
      "org": 2095,
      "taken": 2096,
      "médi": 2097,
      "//": 2098,
      "further": 2099,
      "multi": 2100,
      "suite": 2101,
      "viol": 2102,
      "observ": 2103,
      "aur": 2104,
      "reco": 2105,
      "fier": 2106,
      "tp": 2107,
      "research": 2108,
      "pecial": 2109,
      "milit": 2110,
      "://": 2111,
      "ared": 2112,
      "cue": 2113,
      "Reg": 2114,
      "http": 2115,
      "training": 2116,
      "lieu": 2117,
      "iens": 2118,
      "Ces": 2119,
      "own": 2120,
      "connaiss": 2121,
      "Col": 2122,
      "Fr": 2123,
      "ols": 2124,
      "penses": 2125,
      "63": 2126,
      "éle": 2127,
      "propos": 2128,
      "Assembly": 2129,
      "période": 2130,
      "LE": 2131,
      "RC": 2132,
      "sujet": 2133,
      "mont": 2134,
      "projets": 2135,
      "Member": 2136,
      "islation": 2137,
      "vale": 2138,
      "three": 2139,
      "Groupe": 2140,
      "Work": 2141,
      "exig": 2142,
      "spéci": 2143,
      "ATION": 2144,
      "road": 2145,
      "organisations": 2146,
      "Group": 2147,
      "Si": 2148,
      "same": 2149,
      "regu": 2150,
      "seu": 2151,
      "Do": 2152,
      "second": 2153,
      "secteur": 2154,
      "ramework": 2155,
      "Plan": 2156,
      "Je": 2157,
      "after": 2158,
      "Pol": 2159,
      "isme": 2160,
      "certain": 2161,
      "ID": 2162,
      "auto": 2163,
      "perform": 2164,
      "opportun": 2165,
      "specific": 2166,
      "repor": 2167,
      "local": 2168,
      "Cor": 2169,
      "unes": 2170,
      "acts": 2171,
      "bé": 2172,
      "pan": 2173,
      "ours": 2174,
      "impact": 2175,
      "écu": 2176,
      "qué": 2177,
      "ys": 2178,
      "pren": 2179,
      "expres": 2180,
      "tée": 2181,
      "nov": 2182,
      "groupe": 2183,
      "ception": 2184,
      "devrait": 2185,
      "ENT": 2186,
      "raison": 2187,
      "Assemblée": 2188,
      "discrimination": 2189,
      "façon": 2190,
      "gy": 2191,
      "water": 2192,
      "compris": 2193,
      "entes": 2194,
      "compl": 2195,
      "selon": 2196,
      "ax": 2197,
      "fav": 2198,
      "pa": 2199,
      "ission": 2200,
      "large": 2201,
      "recommend": 2202,
      "Human": 2203,
      "rer": 2204,
      "hic": 2205,
      "chaque": 2206,
      "practi": 2207,
      "nel": 2208,
      "make": 2209,
      "emploi": 2210,
      "million": 2211,
      "AS": 2212,
      "St": 2213,
      "US": 2214,
      "initiatives": 2215,
      "chi": 2216,
      "ized": 2217,
      "eau": 2218,
      "medi": 2219,
      "necess": 2220,
      "exist": 2221,
      "ière": 2222,
      "ling": 2223,
      "coopération": 2224,
      "tenti": 2225,
      "grand": 2226,
      "Ho": 2227,
      "read": 2228,
      "diffic": 2229,
      "années": 2230,
      "post": 2231,
      "dollars": 2232,
      "ade": 2233,
      "cr": 2234,
      "nationaux": 2235,
      "usiness": 2236,
      "ultural": 2237,
      "regional": 2238,
      "ager": 2239,
      "plusieurs": 2240,
      "résident": 2241,
      "anc": 2242,
      "distribu": 2243,
      "iller": 2244,
      "pass": 2245,
      "legal": 2246,
      "Trans": 2247,
      "Str": 2248,
      "allow": 2249,
      "staff": 2250,
      "utilisation": 2251,
      "01": 2252,
      "titre": 2253,
      "CC": 2254,
      "pi": 2255,
      "There": 2256,
      "éch": 2257,
      "cies": 2258,
      "mesure": 2259,
      "étaient": 2260,
      "Jo": 2261,
      "determin": 2262,
      "subst": 2263,
      "dement": 2264,
      "auc": 2265,
      "tend": 2266,
      "étr": 2267,
      "soli": 2268,
      "face": 2269,
      "prog": 2270,
      "achie": 2271,
      "qualité": 2272,
      "Air": 2273,
      "cin": 2274,
      "tig": 2275,
      "ussi": 2276,
      "approach": 2277,
      "trad": 2278,
      "working": 2279,
      "judic": 2280,
      "informations": 2281,
      "ror": 2282,
      "Agency": 2283,
      "area": 2284,
      "aix": 2285,
      "jours": 2286,
      "issue": 2287,
      "européenne": 2288,
      "va": 2289,
      "ites": 2290,
      "proce": 2291,
      "possibil": 2292,
      "help": 2293,
      "itor": 2294,
      "Sou": 2295,
      "type": 2296,
      "taux": 2297,
      "benef": 2298,
      "rôle": 2299,
      "administra": 2300,
      "olog": 2301,
      "astru": 2302,
      "très": 2303,
      "aines": 2304,
      "special": 2305,
      "basis": 2306,
      "tem": 2307,
      "sector": 2308,
      "paix": 2309,
      "ods": 2310,
      "objectifs": 2311,
      "potenti": 2312,
      "cont": 2313,
      "mod": 2314,
      "ories": 2315,
      "arm": 2316,
      "voy": 2317,
      "organismes": 2318,
      "administration": 2319,
      "grow": 2320,
      "UE": 2321,
      "millions": 2322,
      "education": 2323,
      "tations": 2324,
      "annex": 2325,
      "consé": 2326,
      "ateur": 2327,
      "égard": 2328,
      "ze": 2329,
      "required": 2330,
      "certains": 2331,
      "significant": 2332,
      "Afric": 2333,
      "cl": 2334,
      "ians": 2335,
      "divers": 2336,
      "huma": 2337,
      "communication": 2338,
      "ensemble": 2339,
      "six": 2340,
      "range": 2341,
      "tification": 2342,
      "rieur": 2343,
      "role": 2344,
      "èrement": 2345,
      "state": 2346,
      "include": 2347,
      "Char": 2348,
      "évalu": 2349,
      "Gouver": 2350,
      "ough": 2351,
      "Président": 2352,
      "ilding": 2353,
      "fond": 2354,
      "62": 2355,
      "quat": 2356,
      "communications": 2357,
      "AM": 2358,
      "exécu": 2359,
      "incre": 2360,
      "Web": 2361,
      "33": 2362,
      "times": 2363,
      "atte": 2364,
      "und": 2365,
      "appr": 2366,
      "dispositions": 2367,
      "entreprises": 2368,
      "mater": 2369,
      "care": 2370,
      "contex": 2371,
      "Regu": 2372,
      "satis": 2373,
      "relevant": 2374,
      "laire": 2375,
      "Secretary": 2376,
      "fig": 2377,
      "nos": 2378,
      "institution": 2379,
      "EU": 2380,
      "appropriate": 2381,
      "plans": 2382,
      "tained": 2383,
      "lectron": 2384,
      "lines": 2385,
      "ep": 2386,
      "intérê": 2387,
      "urity": 2388,
      "nels": 2389,
      "olutions": 2390,
      "domaine": 2391,
      "eux": 2392,
      "before": 2393,
      "Aff": 2394,
      "TH": 2395,
      "found": 2396,
      "porteur": 2397,
      "partn": 2398,
      "ights": 2399,
      "whe": 2400,
      "rier": 2401,
      "stud": 2402,
      "mocra": 2403,
      "commercial": 2404,
      "étrang": 2405,
      "try": 2406,
      "due": 2407,
      "nelle": 2408,
      "environmental": 2409,
      "mention": 2410,
      "intégr": 2411,
      "iginal": 2412,
      "valuation": 2413,
      "key": 2414,
      "exerc": 2415,
      "SC": 2416,
      "jects": 2417,
      "groupes": 2418,
      "Bure": 2419,
      "reven": 2420,
      "outre": 2421,
      "déf": 2422,
      "direct": 2423,
      "wn": 2424,
      "acces": 2425,
      "submit": 2426,
      "LA": 2427,
      "idi": 2428,
      "sc": 2429,
      "ense": 2430,
      "justice": 2431,
      "porte": 2432,
      "cos": 2433,
      "ordre": 2434,
      "tones": 2435,
      ");": 2436,
      "reed": 2437,
      "ick": 2438,
      "TR": 2439,
      "acqu": 2440,
      "ieux": 2441,
      "lit": 2442,
      "ordon": 2443,
      "organizations": 2444,
      "results": 2445,
      "CN": 2446,
      "June": 2447,
      "Pe": 2448,
      "fy": 2449,
      "era": 2450,
      "organisation": 2451,
      "hau": 2452,
      "particulier": 2453,
      "Bureau": 2454,
      "Rec": 2455,
      "Information": 2456,
      "draft": 2457,
      "violence": 2458,
      "Oc": 2459,
      "év": 2460,
      "intro": 2461,
      "trade": 2462,
      "juin": 2463,
      "Elle": 2464,
      "ût": 2465,
      "Pri": 2466,
      "ogue": 2467,
      "isla": 2468,
      "resident": 2469,
      "necessary": 2470,
      "world": 2471,
      "held": 2472,
      "ayant": 2473,
      "venir": 2474,
      "persons": 2475,
      "Security": 2476,
      "----": 2477,
      "ency": 2478,
      "avis": 2479,
      "life": 2480,
      "participants": 2481,
      "Ter": 2482,
      "chtones": 2483,
      "sum": 2484,
      "présente": 2485,
      "employe": 2486,
      "increase": 2487,
      "Rights": 2488,
      "ible": 2489,
      "page": 2490,
      "visant": 2491,
      "airs": 2492,
      "jan": 2493,
      "1998": 2494,
      "bilité": 2495,
      "tte": 2496,
      "depuis": 2497,
      "manière": 2498,
      "Ju": 2499,
      "fil": 2500,
      "encore": 2501,
      "tées": 2502,
      "canadienne": 2503,
      "migr": 2504,
      "Organisation": 2505,
      "quê": 2506,
      "prév": 2507,
      "ministre": 2508,
      "Acc": 2509,
      "how": 2510,
      "pat": 2511,
      "Indi": 2512,
      "80": 2513,
      "posé": 2514,
      "requirements": 2515,
      "forcement": 2516,
      "MP": 2517,
      "peace": 2518,
      "déce": 2519,
      "sol": 2520,
      "délég": 2521,
      "travaux": 2522,
      "gc": 2523,
      "mation": 2524,
      "compar": 2525,
      "liament": 2526,
      "Conference": 2527,
      "véri": 2528,
      "Health": 2529,
      "experts": 2530,
      "Gouvernement": 2531,
      "contrôle": 2532,
      "established": 2533,
      "45": 2534,
      "fau": 2535,
      "ones": 2536,
      "what": 2537,
      "situ": 2538,
      "considered": 2539,
      "ceux": 2540,
      "imum": 2541,
      "cooperation": 2542,
      "developing": 2543,
      "ET": 2544,
      "Proto": 2545,
      "ort": 2546,
      "vertu": 2547,
      "fications": 2548,
      "grande": 2549,
      "Per": 2550,
      "ôt": 2551,
      "Department": 2552,
      "ledge": 2553,
      "terror": 2554,
      "cember": 2555,
      "Unis": 2556,
      "rapports": 2557,
      "améliorer": 2558,
      "conformément": 2559,
      "federal": 2560,
      "exclu": 2561,
      "December": 2562,
      "hand": 2563,
      "relatives": 2564,
      "société": 2565,
      "suiv": 2566,
      "jeunes": 2567,
      "exemple": 2568,
      "address": 2569,
      "my": 2570,
      "treat": 2571,
      "cases": 2572,
      "sis": 2573,
      "quelle": 2574,
      "marché": 2575,
      "35": 2576,
      "affir": 2577,
      "Secrétaire": 2578,
      "70": 2579,
      "emb": 2580,
      "term": 2581,
      "points": 2582,
      "notre": 2583,
      "métho": 2584,
      "needs": 2585,
      "defin": 2586,
      "effectu": 2587,
      "initiative": 2588,
      "dents": 2589,
      "real": 2590,
      "rédu": 2591,
      "exis": 2592,
      "télé": 2593,
      "serve": 2594,
      "control": 2595,
      "gni": 2596,
      "ual": 2597,
      "sever": 2598,
      "eld": 2599,
      "seront": 2600,
      "tenant": 2601,
      "effet": 2602,
      "These": 2603,
      "Ban": 2604,
      "Sy": 2605,
      "déb": 2606,
      "stain": 2607,
      "promotion": 2608,
      "global": 2609,
      "bio": 2610,
      "ot": 2611,
      "attention": 2612,
      "Court": 2613,
      "infrastru": 2614,
      "However": 2615,
      "sk": 2616,
      "aci": 2617,
      "donc": 2618,
      "règlement": 2619,
      "inci": 2620,
      "prési": 2621,
      "gre": 2622,
      "ître": 2623,
      "Parties": 2624,
      "joint": 2625,
      "Nu": 2626,
      "mic": 2627,
      "deli": 2628,
      "lements": 2629,
      "offer": 2630,
      "transfer": 2631,
      "capacity": 2632,
      "décembre": 2633,
      "naires": 2634,
      "vul": 2635,
      "affaires": 2636,
      "OC": 2637,
      "reç": 2638,
      "tics": 2639,
      "favor": 2640,
      "cole": 2641,
      "nouveau": 2642,
      "hist": 2643,
      "diver": 2644,
      "allen": 2645,
      "contribution": 2646,
      "moyen": 2647,
      "pouvoir": 2648,
      "04": 2649,
      "enh": 2650,
      "inten": 2651,
      "ship": 2652,
      "nouvelles": 2653,
      "béné": 2654,
      "99": 2655,
      "adap": 2656,
      "précis": 2657,
      "groups": 2658,
      "Accord": 2659,
      "framework": 2660,
      "sing": 2661,
      "art": 2662,
      "enda": 2663,
      "without": 2664,
      "espè": 2665,
      "coordination": 2666,
      "Br": 2667,
      "prend": 2668,
      "does": 2669,
      "till": 2670,
      "AAAAAAAA": 2671,
      "mall": 2672,
      "objet": 2673,
      "charge": 2674,
      "efficac": 2675,
      "construction": 2676,
      "ward": 2677,
      "»,": 2678,
      "lat": 2679,
      "whether": 2680,
      "ators": 2681,
      "sustain": 2682,
      "March": 2683,
      "besoins": 2684,
      "SI": 2685,
      "among": 2686,
      "renfor": 2687,
      "état": 2688,
      "ird": 2689,
      "offici": 2690,
      "appui": 2691,
      "refer": 2692,
      "structure": 2693,
      "systems": 2694,
      "market": 2695,
      "May": 2696,
      "hal": 2697,
      "ril": 2698,
      "tour": 2699,
      "ouv": 2700,
      "proble": 2701,
      "building": 2702,
      "programs": 2703,
      "since": 2704,
      "soient": 2705,
      "financement": 2706,
      "Management": 2707,
      "05": 2708,
      "concent": 2709,
      "conseil": 2710,
      "perman": 2711,
      "lais": 2712,
      "aged": 2713,
      "100": 2714,
      "75": 2715,
      "OF": 2716,
      "avi": 2717,
      "govern": 2718,
      "your": 2719,
      "arri": 2720,
      "expéri": 2721,
      "».": 2722,
      "enquê": 2723,
      "tariat": 2724,
      "Amer": 2725,
      "PS": 2726,
      "nie": 2727,
      "wer": 2728,
      "reques": 2729,
      "lated": 2730,
      "laires": 2731,
      "civil": 2732,
      "political": 2733,
      "performance": 2734,
      "exercice": 2735,
      "responsibil": 2736,
      "nécessaire": 2737,
      "ises": 2738,
      "tel": 2739,
      "while": 2740,
      "Report": 2741,
      "ME": 2742,
      "President": 2743,
      "ONU": 2744,
      "DI": 2745,
      "tax": 2746,
      "max": 2747,
      "cure": 2748,
      "Republic": 2749,
      "partici": 2750,
      "mars": 2751,
      "juridi": 2752,
      "Jan": 2753,
      "ps": 2754,
      "tré": 2755,
      "abo": 2756,
      "compla": 2757,
      "business": 2758,
      "sto": 2759,
      "loy": 2760,
      "dépenses": 2761,
      "hold": 2762,
      "condu": 2763,
      "member": 2764,
      "portion": 2765,
      "Institu": 2766,
      "adopted": 2767,
      "future": 2768,
      "croiss": 2769,
      "première": 2770,
      "06": 2771,
      "PE": 2772,
      "nical": 2773,
      "ticles": 2774,
      "istan": 2775,
      "ample": 2776,
      "circu": 2777,
      "Americ": 2778,
      "ron": 2779,
      "ici": 2780,
      "experi": 2781,
      "bure": 2782,
      "istes": 2783,
      "ender": 2784,
      "streng": 2785,
      "Associ": 2786,
      "tradition": 2787,
      "Date": 2788,
      "MENT": 2789,
      "bour": 2790,
      "ime": 2791,
      "ore": 2792,
      "nés": 2793,
      "occas": 2794,
      "respec": 2795,
      "Fe": 2796,
      "som": 2797,
      "result": 2798,
      "amoun": 2799,
      "changes": 2800,
      "risk": 2801,
      "provisions": 2802,
      "llu": 2803,
      "dépend": 2804,
      "vio": 2805,
      "statis": 2806,
      "réglement": 2807,
      "Dec": 2808,
      "event": 2809,
      "cover": 2810,
      "activité": 2811,
      "Alber": 2812,
      "obligations": 2813,
      "different": 2814,
      "Ou": 2815,
      "omb": 2816,
      "2009": 2817,
      "Jus": 2818,
      "ily": 2819,
      "given": 2820,
      "03": 2821,
      "PA": 2822,
      "équ": 2823,
      "fix": 2824,
      "investis": 2825,
      "hib": 2826,
      "ond": 2827,
      "innov": 2828,
      "urg": 2829,
      "levels": 2830,
      "tar": 2831,
      "acy": 2832,
      "police": 2833,
      "scho": 2834,
      "accordance": 2835,
      "lis": 2836,
      "terme": 2837,
      "minor": 2838,
      "jusqu": 2839,
      "Apr": 2840,
      "porter": 2841,
      "party": 2842,
      "adoption": 2843,
      "République": 2844,
      "nat": 2845,
      "fournir": 2846,
      "ification": 2847,
      "éléments": 2848,
      "projects": 2849,
      "Im": 2850,
      "Mme": 2851,
      "migration": 2852,
      "OM": 2853,
      "Sud": 2854,
      "ely": 2855,
      "veloped": 2856,
      "systèmes": 2857,
      "premier": 2858,
      "April": 2859,
      "Abor": 2860,
      "CF": 2861,
      "Russi": 2862,
      "deleg": 2863,
      "concerne": 2864,
      "environment": 2865,
      "proposed": 2866,
      "tur": 2867,
      "vious": 2868,
      "avaient": 2869,
      "ération": 2870,
      "subject": 2871,
      "correspon": 2872,
      "invest": 2873,
      "éner": 2874,
      "rate": 2875,
      "ministère": 2876,
      "analyse": 2877,
      "37": 2878,
      "lim": 2879,
      "sug": 2880,
      "devraient": 2881,
      "90": 2882,
      "amb": 2883,
      "eth": 2884,
      "illance": 2885,
      "Eng": 2886,
      "month": 2887,
      "hen": 2888,
      "Septe": 2889,
      "36": 2890,
      "self": 2891,
      "increased": 2892,
      "autochtones": 2893,
      "Aboriginal": 2894,
      "wa": 2895,
      "paration": 2896,
      "ecu": 2897,
      "nouvelle": 2898,
      "scienti": 2899,
      "gin": 2900,
      "later": 2901,
      "heures": 2902,
      "Inc": 2903,
      "sais": 2904,
      "communities": 2905,
      "fonds": 2906,
      "Ministère": 2907,
      "full": 2908,
      "étude": 2909,
      "success": 2910,
      "enter": 2911,
      "means": 2912,
      "did": 2913,
      "avril": 2914,
      "mandat": 2915,
      "nouveaux": 2916,
      "September": 2917,
      "Special": 2918,
      "ix": 2919,
      "ergy": 2920,
      "tran": 2921,
      "Canadians": 2922,
      "provides": 2923,
      "del": 2924,
      "limin": 2925,
      "interven": 2926,
      "monde": 2927,
      "1996": 2928,
      "direction": 2929,
      "commerce": 2930,
      "dialogue": 2931,
      "recogni": 2932,
      "Am": 2933,
      "prest": 2934,
      "sites": 2935,
      "Code": 2936,
      "equi": 2937,
      "challen": 2938,
      "official": 2939,
      "opérations": 2940,
      "provincial": 2941,
      "received": 2942,
      "Car": 2943,
      "savoir": 2944,
      "éducation": 2945,
      "serait": 2946,
      "industry": 2947,
      "Qué": 2948,
      "improve": 2949,
      "assessment": 2950,
      "PC": 2951,
      "SE": 2952,
      "redu": 2953,
      "developed": 2954,
      "mois": 2955,
      "mécan": 2956,
      "problèmes": 2957,
      "Octo": 2958,
      "48": 2959,
      "AU": 2960,
      "Table": 2961,
      "fique": 2962,
      "illet": 2963,
      "issent": 2964,
      "fs": 2965,
      "élabor": 2966,
      "said": 2967,
      "matéri": 2968,
      "policies": 2969,
      "économiques": 2970,
      "ito": 2971,
      "late": 2972,
      "déci": 2973,
      "mondi": 2974,
      "pratiques": 2975,
      "orient": 2976,
      "laquelle": 2977,
      "1997": 2978,
      "Parliament": 2979,
      "complex": 2980,
      "techniques": 2981,
      "yer": 2982,
      "destin": 2983,
      "rées": 2984,
      "dés": 2985,
      "abs": 2986,
      "fran": 2987,
      "Nove": 2988,
      "instal": 2989,
      "Economic": 2990,
      "IL": 2991,
      "ways": 2992,
      "sition": 2993,
      "pourrait": 2994,
      "minu": 2995,
      "effets": 2996,
      "monitor": 2997,
      "collaboration": 2998,
      "issant": 2999,
      "knowledge": 3000,
      "cueil": 3001,
      "bri": 3002,
      "camp": 3003,
      "dang": 3004,
      "arb": 3005,
      "septe": 3006,
      "because": 3007,
      "final": 3008,
      "guide": 3009,
      "suivant": 3010,
      "normes": 3011,
      "septembre": 3012,
      "With": 3013,
      "ath": 3014,
      "centre": 3015,
      "like": 3016,
      "super": 3017,
      "material": 3018,
      "ii": 3019,
      "conven": 3020,
      "side": 3021,
      "products": 3022,
      "coup": 3023,
      "Docu": 3024,
      "bénéfic": 3025,
      "Que": 3026,
      "quant": 3027,
      "provision": 3028,
      "oires": 3029,
      "08": 3030,
      "tient": 3031,
      "dispon": 3032,
      "contributions": 3033,
      "nécessaires": 3034,
      "sti": 3035,
      "1995": 3036,
      "Annex": 3037,
      "efficace": 3038,
      "certaines": 3039,
      "influ": 3040,
      "exploitation": 3041,
      "PO": 3042,
      "pau": 3043,
      "zone": 3044,
      "infor": 3045,
      "light": 3046,
      "competi": 3047,
      "création": 3048,
      "Memb": 3049,
      "....": 3050,
      "étudi": 3051,
      "seulement": 3052,
      "October": 3053,
      "39": 3054,
      "TE": 3055,
      "remain": 3056,
      "déj": 3057,
      "Canadiens": 3058,
      "Contr": 3059,
      "suppl": 3060,
      "authorities": 3061,
      "November": 3062,
      "fais": 3063,
      "enregis": 3064,
      "encies": 3065,
      "nelles": 3066,
      "nove": 3067,
      "above": 3068,
      "Québec": 3069,
      "déjà": 3070,
      "First": 3071,
      "tta": 3072,
      "mploy": 3073,
      "Premi": 3074,
      "July": 3075,
      "oth": 3076,
      "pt": 3077,
      "reports": 3078,
      "deta": 3079,
      "vier": 3080,
      "avons": 3081,
      "humanit": 3082,
      "61": 3083,
      "Sup": 3084,
      "mom": 3085,
      "mag": 3086,
      "she": 3087,
      "dec": 3088,
      "gueur": 3089,
      "Community": 3090,
      "pects": 3091,
      "valeur": 3092,
      "If": 3093,
      "design": 3094,
      "opin": 3095,
      "soutien": 3096,
      "goci": 3097,
      "Bri": 3098,
      "sources": 3099,
      "reli": 3100,
      "forces": 3101,
      "solid": 3102,
      "permis": 3103,
      "show": 3104,
      "soulig": 3105,
      "confir": 3106,
      "icip": 3107,
      "prix": 3108,
      "servation": 3109,
      "capacité": 3110,
      "Rapporteur": 3111,
      "CH": 3112,
      "proper": 3113,
      "proté": 3114,
      "comment": 3115,
      "carri": 3116,
      "lands": 3117,
      "aliment": 3118,
      "suffis": 3119,
      "traitement": 3120,
      "ograph": 3121,
      "making": 3122,
      "focus": 3123,
      "juillet": 3124,
      "consultations": 3125,
      "européen": 3126,
      "various": 3127,
      "study": 3128,
      "Ob": 3129,
      "back": 3130,
      "trib": 3131,
      "obtenir": 3132,
      "octo": 3133,
      "domes": 3134,
      "Alberta": 3135,
      "wan": 3136,
      "ross": 3137,
      "employés": 3138,
      "technologies": 3139,
      "den": 3140,
      "raux": 3141,
      "sent": 3142,
      "small": 3143,
      "noted": 3144,
      "employment": 3145,
      "univers": 3146,
      "recommandations": 3147,
      "recommendations": 3148,
      "strengthen": 3149,
      "rése": 3150,
      "consultation": 3151,
      "octobre": 3152,
      "hon": 3153,
      "naire": 3154,
      "ased": 3155,
      "mai": 3156,
      "grès": 3157,
      "établi": 3158,
      "études": 3159,
      "additional": 3160,
      "quatre": 3161,
      "Her": 3162,
      "fish": 3163,
      "uary": 3164,
      "cell": 3165,
      "dée": 3166,
      "Conférence": 3167,
      "donné": 3168,
      "internationales": 3169,
      "Univers": 3170,
      "Offic": 3171,
      "cul": 3172,
      "dy": 3173,
      "depart": 3174,
      "conduc": 3175,
      "négoci": 3176,
      "Internet": 3177,
      "èle": 3178,
      "anni": 3179,
      "isés": 3180,
      "ouse": 3181,
      "investig": 3182,
      "oma": 3183,
      "ator": 3184,
      "auprès": 3185,
      "érer": 3186,
      "preu": 3187,
      "TO": 3188,
      "armes": 3189,
      "gues": 3190,
      "populations": 3191,
      "Sub": 3192,
      "progress": 3193,
      "Association": 3194,
      ".\"": 3195,
      "09": 3196,
      "hor": 3197,
      "élaboration": 3198,
      "tie": 3199,
      "celle": 3200,
      "suit": 3201,
      "Comp": 3202,
      "thern": 3203,
      "claim": 3204,
      "surveillance": 3205,
      "several": 3206,
      "Asi": 3207,
      "CON": 3208,
      "Otta": 3209,
      "éco": 3210,
      "étant": 3211,
      "indre": 3212,
      "décisions": 3213,
      "vidence": 3214,
      "pression": 3215,
      "value": 3216,
      "collectiv": 3217,
      "Ottawa": 3218,
      "38": 3219,
      "VI": 3220,
      "ious": 3221,
      "ole": 3222,
      "using": 3223,
      "cost": 3224,
      "Law": 3225,
      "chez": 3226,
      "Section": 3227,
      "January": 3228,
      "experience": 3229,
      "novembre": 3230,
      "bru": 3231,
      "faut": 3232,
      "stu": 3233,
      "sociale": 3234,
      "species": 3235,
      "autorités": 3236,
      "Ver": 3237,
      "anim": 3238,
      "lear": 3239,
      "celui": 3240,
      "unique": 3241,
      "record": 3242,
      "Communic": 3243,
      "ready": 3244,
      "costs": 3245,
      "gie": 3246,
      "ctures": 3247,
      "méro": 3248,
      "society": 3249,
      "objectif": 3250,
      "95": 3251,
      "uring": 3252,
      "alestin": 3253,
      "durable": 3254,
      "Social": 3255,
      "da": 3256,
      "oute": 3257,
      "head": 3258,
      "ieu": 3259,
      "obser": 3260,
      "laration": 3261,
      "Adminis": 3262,
      "III": 3263,
      "submitted": 3264,
      "Ms": 3265,
      "chap": 3266,
      "Li": 3267,
      "Mission": 3268,
      "ga": 3269,
      "lt": 3270,
      "pil": 3271,
      "wards": 3272,
      "ases": 3273,
      "simp": 3274,
      "197": 3275,
      "legislation": 3276,
      "funding": 3277,
      "standards": 3278,
      "THE": 3279,
      "janvier": 3280,
      "34": 3281,
      "Bel": 3282,
      "Nouve": 3283,
      "Règ": 3284,
      "aider": 3285,
      "valu": 3286,
      "fully": 3287,
      "Working": 3288,
      "02": 3289,
      "quar": 3290,
      "ustr": 3291,
      "stances": 3292,
      "interes": 3293,
      "field": 3294,
      "annexe": 3295,
      "Nord": 3296,
      "descri": 3297,
      "They": 3298,
      "nationales": 3299,
      "Chair": 3300,
      "régions": 3301,
      "croissance": 3302,
      "ina": 3303,
      "sein": 3304,
      "comes": 3305,
      "taking": 3306,
      "procédure": 3307,
      "réunion": 3308,
      "aid": 3309,
      "example": 3310,
      "interest": 3311,
      "keep": 3312,
      "ness": 3313,
      "types": 3314,
      "suppor": 3315,
      "Research": 3316,
      "industrie": 3317,
      "ood": 3318,
      "san": 3319,
      "depend": 3320,
      "articles": 3321,
      "amend": 3322,
      "goti": 3323,
      "half": 3324,
      "DC": 3325,
      "cing": 3326,
      "fai": 3327,
      "entra": 3328,
      "alors": 3329,
      "celles": 3330,
      "supéri": 3331,
      "technical": 3332,
      "All": 3333,
      "stitution": 3334,
      "moment": 3335,
      "zed": 3336,
      "ène": 3337,
      "vient": 3338,
      "Description": 3339,
      "pursu": 3340,
      "occasion": 3341,
      "gré": 3342,
      "propri": 3343,
      "suivi": 3344,
      "Agree": 3345,
      "account": 3346,
      "ices": 3347,
      "mechan": 3348,
      "égalité": 3349,
      "cedures": 3350,
      "Affairs": 3351,
      "44": 3352,
      "open": 3353,
      "recru": 3354,
      "trava": 3355,
      "moyens": 3356,
      "individual": 3357,
      "instruments": 3358,
      "infrastructure": 3359,
      "supplément": 3360,
      "broad": 3361,
      "mieux": 3362,
      "changements": 3363,
      "isé": 3364,
      "rain": 3365,
      "formu": 3366,
      "sées": 3367,
      "représentants": 3368,
      "________________": 3369,
      "67": 3370,
      "Gr": 3371,
      "Sur": 3372,
      "wide": 3373,
      "intention": 3374,
      "agenda": 3375,
      "risques": 3376,
      "Isra": 3377,
      "ba": 3378,
      "gation": 3379,
      "terres": 3380,
      "growth": 3381,
      "hol": 3382,
      "âce": 3383,
      "deci": 3384,
      "restric": 3385,
      "fiques": 3386,
      "suivre": 3387,
      "France": 3388,
      "distribution": 3389,
      "existing": 3390,
      "clé": 3391,
      "fins": 3392,
      "source": 3393,
      "uk": 3394,
      "aspects": 3395,
      "taires": 3396,
      "export": 3397,
      "male": 3398,
      "compli": 3399,
      "employees": 3400,
      "central": 3401,
      "clas": 3402,
      "cinq": 3403,
      "renforcer": 3404,
      "alle": 3405,
      "gement": 3406,
      "poste": 3407,
      "Rapport": 3408,
      "uti": 3409,
      "référence": 3410,
      "five": 3411,
      "07": 3412,
      "IV": 3413,
      "gal": 3414,
      "war": 3415,
      "audi": 3416,
      "lie": 3417,
      "ground": 3418,
      "food": 3419,
      "conflic": 3420,
      "Afrique": 3421,
      "agreement": 3422,
      "Polic": 3423,
      "Mal": 3424,
      "Ne": 3425,
      "terms": 3426,
      "recent": 3427,
      "play": 3428,
      "consom": 3429,
      "concerned": 3430,
      "2010": 3431,
      "Roy": 3432,
      "Fon": 3433,
      "Tor": 3434,
      "dures": 3435,
      "every": 3436,
      "oto": 3437,
      "ind": 3438,
      "condition": 3439,
      "exten": 3440,
      "particularly": 3441,
      "North": 3442,
      "South": 3443,
      "potential": 3444,
      "matique": 3445,
      "vigueur": 3446,
      "gener": 3447,
      "technique": 3448,
      "introdu": 3449,
      "AF": 3450,
      "AG": 3451,
      "liber": 3452,
      "version": 3453,
      "tenus": 3454,
      "lutte": 3455,
      "transpar": 3456,
      "AND": 3457,
      "private": 3458,
      "tage": 3459,
      "radio": 3460,
      "contact": 3461,
      "mari": 3462,
      "common": 3463,
      "htm": 3464,
      "garanti": 3465,
      "Tech": 3466,
      "saf": 3467,
      "ailleurs": 3468,
      "Director": 3469,
      "communauté": 3470,
      "aucune": 3471,
      "ior": 3472,
      "liste": 3473,
      "vou": 3474,
      "quanti": 3475,
      "trop": 3476,
      "téri": 3477,
      "ffic": 3478,
      "moder": 3479,
      "capacités": 3480,
      "technology": 3481,
      "pected": 3482,
      "tains": 3483,
      "pertin": 3484,
      "put": 3485,
      "1990": 3486,
      "responsible": 3487,
      "organization": 3488,
      "habitat": 3489,
      "itoy": 3490,
      "Ge": 3491,
      "ouvoir": 3492,
      "lack": 3493,
      "negoti": 3494,
      "understand": 3495,
      "therefore": 3496,
      ".)": 3497,
      "DU": 3498,
      "ged": 3499,
      "sco": 3500,
      "onto": 3501,
      "itre": 3502,
      "lac": 3503,
      "asse": 3504,
      "déta": 3505,
      "produit": 3506,
      "lections": 3507,
      "déterminer": 3508,
      "domestic": 3509,
      "55": 3510,
      "88": 3511,
      "CS": 3512,
      "cat": 3513,
      "aring": 3514,
      "quels": 3515,
      "ghan": 3516,
      "conna": 3517,
      "Organization": 3518,
      "histor": 3519,
      "DP": 3520,
      "offr": 3521,
      "procedures": 3522,
      "ends": 3523,
      "rules": 3524,
      "risque": 3525,
      "operations": 3526,
      "COM": 3527,
      "Strateg": 3528,
      "Lab": 3529,
      "tenue": 3530,
      "précé": 3531,
      "activity": 3532,
      "stratégie": 3533,
      "Division": 3534,
      "équipe": 3535,
      "benefits": 3536,
      "pir": 3537,
      "ani": 3538,
      "relig": 3539,
      "votre": 3540,
      "1994": 3541,
      "abilities": 3542,
      "domaines": 3543,
      "Sel": 3544,
      "hé": 3545,
      "xi": 3546,
      "ann": 3547,
      "proportion": 3548,
      "manu": 3549,
      "centres": 3550,
      "better": 3551,
      "pratique": 3552,
      "montant": 3553,
      "Africa": 3554,
      "1er": 3555,
      "OS": 3556,
      "ize": 3557,
      "engage": 3558,
      "gouvernements": 3559,
      "facilit": 3560,
      "procédures": 3561,
      "):": 3562,
      "just": 3563,
      "conse": 3564,
      "liv": 3565,
      "posed": 3566,
      "agencies": 3567,
      "médic": 3568,
      "communi": 3569,
      "approche": 3570,
      "promote": 3571,
      "Secretariat": 3572,
      "Environment": 3573,
      "mondiale": 3574,
      "ctu": 3575,
      "minist": 3576,
      "souh": 3577,
      "souvent": 3578,
      "request": 3579,
      "quali": 3580,
      "avantage": 3581,
      "intérêt": 3582,
      "Sask": 3583,
      "rales": 3584,
      "tiz": 3585,
      "démocra": 3586,
      "beau": 3587,
      "vice": 3588,
      "going": 3589,
      "spec": 3590,
      "municip": 3591,
      "secteurs": 3592,
      "integr": 3593,
      "besoin": 3594,
      "meth": 3595,
      "membre": 3596,
      "family": 3597,
      "World": 3598,
      "sau": 3599,
      "attribu": 3600,
      "aving": 3601,
      "anced": 3602,
      "coû": 3603,
      "séance": 3604,
      "directive": 3605,
      "ploy": 3606,
      "measure": 3607,
      "32": 3608,
      "49": 3609,
      "ao": 3610,
      "best": 3611,
      "list": 3612,
      "sche": 3613,
      "électron": 3614,
      "quelles": 3615,
      "good": 3616,
      "responsabilité": 3617,
      "TA": 3618,
      "catég": 3619,
      "citoy": 3620,
      "even": 3621,
      "pare": 3622,
      "arch": 3623,
      "oms": 3624,
      "vote": 3625,
      "syn": 3626,
      "Toute": 3627,
      "urn": 3628,
      "reason": 3629,
      "seignement": 3630,
      "analysis": 3631,
      "annual": 3632,
      "administrative": 3633,
      "expérience": 3634,
      "amount": 3635,
      "safety": 3636,
      "47": 3637,
      "Ils": 3638,
      "Ph": 3639,
      "eded": 3640,
      "ules": 3641,
      "upon": 3642,
      "apply": 3643,
      "hui": 3644,
      "toujours": 3645,
      "practices": 3646,
      "tempor": 3647,
      "IR": 3648,
      "Lors": 3649,
      "fis": 3650,
      "pect": 3651,
      "portant": 3652,
      "plain": 3653,
      "donner": 3654,
      "feu": 3655,
      "importante": 3656,
      "consideration": 3657,
      "établir": 3658,
      "equip": 3659,
      "nam": 3660,
      "third": 3661,
      "para": 3662,
      "previous": 3663,
      "intérieur": 3664,
      "independ": 3665,
      "transition": 3666,
      "59": 3667,
      "Amé": 3668,
      "ging": 3669,
      "iver": 3670,
      "mobil": 3671,
      "rendement": 3672,
      "lorsque": 3673,
      "language": 3674,
      "monitoring": 3675,
      "Fund": 3676,
      "hn": 3677,
      "still": 3678,
      "eter": 3679,
      "Parlement": 3680,
      "aison": 3681,
      "response": 3682,
      "promouvoir": 3683,
      "humaines": 3684,
      "DF": 3685,
      "ey": 3686,
      "sw": 3687,
      "pollu": 3688,
      "mination": 3689,
      "plupart": 3690,
      "status": 3691,
      "combin": 3692,
      "Agreement": 3693,
      "cès": 3694,
      "ront": 3695,
      "anci": 3696,
      "last": 3697,
      "monstr": 3698,
      "Part": 3699,
      "location": 3700,
      "Aug": 3701,
      "ibles": 3702,
      "evaluation": 3703,
      "lon": 3704,
      "ox": 3705,
      "tific": 3706,
      "prê": 3707,
      "tels": 3708,
      "quences": 3709,
      "mail": 3710,
      "licence": 3711,
      "capital": 3712,
      "principes": 3713,
      "integra": 3714,
      "judici": 3715,
      "preuve": 3716,
      "ministères": 3717,
      "68": 3718,
      "Govern": 3719,
      "atoire": 3720,
      "expected": 3721,
      "lected": 3722,
      "Agence": 3723,
      "exigences": 3724,
      "65": 3725,
      "dated": 3726,
      "sph": 3727,
      "energy": 3728,
      "termes": 3729,
      "sons": 3730,
      "fié": 3731,
      "curr": 3732,
      "engagement": 3733,
      "établissement": 3734,
      "Region": 3735,
      "opportunities": 3736,
      "Policy": 3737,
      "here": 3738,
      "kes": 3739,
      "ists": 3740,
      "already": 3741,
      "towards": 3742,
      "down": 3743,
      "phy": 3744,
      "planning": 3745,
      "jourd": 3746,
      "objectives": 3747,
      "treatment": 3748,
      "bureau": 3749,
      "Saskat": 3750,
      "orig": 3751,
      "tection": 3752,
      "adres": 3753,
      "lois": 3754,
      "ros": 3755,
      "Initi": 3756,
      "item": 3757,
      "particulièrement": 3758,
      "examiner": 3759,
      "demandes": 3760,
      "Atlan": 3761,
      "ecutive": 3762,
      "Other": 3763,
      "simil": 3764,
      "progrès": 3765,
      "regular": 3766,
      "deuxième": 3767,
      "continued": 3768,
      "stratégique": 3769,
      "Ma": 3770,
      "NE": 3771,
      "deb": 3772,
      "atory": 3773,
      "régu": 3774,
      "désig": 3775,
      "effects": 3776,
      "fév": 3777,
      "efficient": 3778,
      "partenaires": 3779,
      "Quebec": 3780,
      "acter": 3781,
      "prob": 3782,
      "poser": 3783,
      "strong": 3784,
      "partir": 3785,
      "rapide": 3786,
      "diction": 3787,
      "included": 3788,
      "reporting": 3789,
      "Cla": 3790,
      "CAN": 3791,
      "aim": 3792,
      "gés": 3793,
      "rations": 3794,
      "decisions": 3795,
      "arrange": 3796,
      "ury": 3797,
      "rab": 3798,
      "phone": 3799,
      "respective": 3800,
      "strategic": 3801,
      "différents": 3802,
      "procedure": 3803,
      "sustainable": 3804,
      "responsibility": 3805,
      "CI": 3806,
      "You": 3807,
      "evidence": 3808,
      "free": 3809,
      "tle": 3810,
      "énon": 3811,
      "agreed": 3812,
      "option": 3813,
      "distin": 3814,
      "venant": 3815,
      "mondial": 3816,
      "Forces": 3817,
      "Manit": 3818,
      "février": 3819,
      "remp": 3820,
      "citiz": 3821,
      "dix": 3822,
      "dossi": 3823,
      "voie": 3824,
      "accro": 3825,
      "increasing": 3826,
      "absence": 3827,
      "Cer": 3828,
      "DES": 3829,
      "SP": 3830,
      "cris": 3831,
      "frais": 3832,
      "lect": 3833,
      "exter": 3834,
      "reported": 3835,
      "context": 3836,
      "espèces": 3837,
      "efficacité": 3838,
      "opinion": 3839,
      "August": 3840,
      "Cont": 3841,
      "aver": 3842,
      "bed": 3843,
      "ane": 3844,
      "acte": 3845,
      "entreprise": 3846,
      "classi": 3847,
      "province": 3848,
      "obligation": 3849,
      "harmon": 3850,
      "Règlement": 3851,
      "emer": 3852,
      "envis": 3853,
      "sements": 3854,
      "sibles": 3855,
      "réduction": 3856,
      "aper": 3857,
      "oba": 3858,
      "istent": 3859,
      "Under": 3860,
      "positive": 3861,
      "providing": 3862,
      "devant": 3863,
      "priorités": 3864,
      "hydro": 3865,
      "Febru": 3866,
      "February": 3867,
      "41": 3868,
      "power": 3869,
      "vise": 3870,
      "concerning": 3871,
      "souhait": 3872,
      "Cent": 3873,
      "Med": 3874,
      "outil": 3875,
      "ache": 3876,
      "civi": 3877,
      "Comme": 3878,
      "involved": 3879,
      "difficult": 3880,
      "GR": 3881,
      "Pl": 3882,
      "font": 3883,
      "itions": 3884,
      "mn": 3885,
      "oung": 3886,
      "préoccup": 3887,
      "meetings": 3888,
      "Transport": 3889,
      "partnership": 3890,
      "MIN": 3891,
      "oles": 3892,
      "income": 3893,
      "erre": 3894,
      "cela": 3895,
      "medic": 3896,
      "existe": 3897,
      "planification": 3898,
      "juris": 3899,
      "however": 3900,
      "Colomb": 3901,
      "exécution": 3902,
      "econom": 3903,
      "lor": 3904,
      "oeu": 3905,
      "zones": 3906,
      "Industr": 3907,
      "grâce": 3908,
      "marchés": 3909,
      "strategy": 3910,
      "ming": 3911,
      "deal": 3912,
      "laté": 3913,
      "lib": 3914,
      "agit": 3915,
      "ligne": 3916,
      "provinces": 3917,
      "Afghan": 3918,
      "Fonds": 3919,
      "çais": 3920,
      "arrê": 3921,
      "team": 3922,
      "igned": 3923,
      "voit": 3924,
      "sélection": 3925,
      "niveaux": 3926,
      "connaissances": 3927,
      "élev": 3928,
      "PP": 3929,
      "pê": 3930,
      "thé": 3931,
      "rev": 3932,
      "often": 3933,
      "vehic": 3934,
      "meet": 3935,
      "commen": 3936,
      "véhic": 3937,
      "territor": 3938,
      "Trade": 3939,
      "août": 3940,
      "Manitoba": 3941,
      "nic": 3942,
      "lace": 3943,
      "secré": 3944,
      "forms": 3945,
      "fédéral": 3946,
      "énergie": 3947,
      "coûts": 3948,
      "quence": 3949,
      "compos": 3950,
      "aging": 3951,
      "gether": 3952,
      "fron": 3953,
      "Cha": 3954,
      "rug": 3955,
      "Force": 3956,
      "observations": 3957,
      "aucun": 3958,
      "hensive": 3959,
      "Mé": 3960,
      "cultural": 3961,
      "fab": 3962,
      "rÃ": 3963,
      "ili": 3964,
      "concep": 3965,
      "proch": 3966,
      "mine": 3967,
      "compag": 3968,
      "autés": 3969,
      "Add": 3970,
      "utiliser": 3971,
      "responsabil": 3972,
      "agreements": 3973,
      "school": 3974,
      "challenges": 3975,
      "TC": 3976,
      "cô": 3977,
      "trouver": 3978,
      "ody": 3979,
      "conférence": 3980,
      "network": 3981,
      "financière": 3982,
      "déclaration": 3983,
      "regarding": 3984,
      "achieve": 3985,
      "58": 3986,
      "ked": 3987,
      "deme": 3988,
      "etc": 3989,
      "peup": 3990,
      "traité": 3991,
      "office": 3992,
      "règles": 3993,
      "practice": 3994,
      "similar": 3995,
      "Ab": 3996,
      "High": 3997,
      "telle": 3998,
      "lier": 3999,
      "reser": 4000,
      "nuclé": 4001,
      "taining": 4002,
      "effect": 4003,
      "technologie": 4004,
      "clients": 4005,
      "500": 4006,
      "fle": 4007,
      "least": 4008,
      "urant": 4009,
      "exception": 4010,
      "veness": 4011,
      "phase": 4012,
      "arian": 4013,
      "adopté": 4014,
      "principal": 4015,
      "législation": 4016,
      "John": 4017,
      "partners": 4018,
      "Protocol": 4019,
      "président": 4020,
      "Document": 4021,
      "though": 4022,
      "ither": 4023,
      "valid": 4024,
      "1992": 4025,
      "court": 4026,
      "texte": 4027,
      "lorsqu": 4028,
      "territoire": 4029,
      "addres": 4030,
      "accessible": 4031,
      "migrants": 4032,
      "ajou": 4033,
      "pens": 4034,
      "reach": 4035,
      "matiques": 4036,
      "stre": 4037,
      "ills": 4038,
      "sign": 4039,
      "maintien": 4040,
      "nombreux": 4041,
      "canadiennes": 4042,
      "Secrétariat": 4043,
      "réduire": 4044,
      "Action": 4045,
      "dir": 4046,
      "fence": 4047,
      "origin": 4048,
      "ars": 4049,
      "tatif": 4050,
      "inspe": 4051,
      "Chap": 4052,
      "corpor": 4053,
      "foreign": 4054,
      "discussion": 4055,
      "Employ": 4056,
      "usion": 4057,
      "ics": 4058,
      "adv": 4059,
      "agent": 4060,
      "durant": 4061,
      "actuellement": 4062,
      "problème": 4063,
      "permanent": 4064,
      "beaucoup": 4065,
      "tine": 4066,
      "trou": 4067,
      "conservation": 4068,
      "tered": 4069,
      "victi": 4070,
      "bodies": 4071,
      "applicable": 4072,
      "identify": 4073,
      "representatives": 4074,
      "Regulations": 4075,
      "greater": 4076,
      "natural": 4077,
      "\".": 4078,
      "ED": 4079,
      "Pers": 4080,
      "flu": 4081,
      "mises": 4082,
      "internationaux": 4083,
      "incor": 4084,
      "web": 4085,
      "next": 4086,
      "permettre": 4087,
      "commitment": 4088,
      "augmentation": 4089,
      "Be": 4090,
      "chac": 4091,
      "command": 4092,
      "workers": 4093,
      "goods": 4094,
      "UNI": 4095,
      "leadership": 4096,
      "méthodes": 4097,
      "participer": 4098,
      "Austr": 4099,
      "NO": 4100,
      "Women": 4101,
      "em": 4102,
      "job": 4103,
      "nance": 4104,
      "agers": 4105,
      "agents": 4106,
      "identified": 4107,
      "famille": 4108,
      "demandé": 4109,
      "awar": 4110,
      "Guide": 4111,
      "délégation": 4112,
      "correspond": 4113,
      "Bud": 4114,
      "call": 4115,
      "solutions": 4116,
      "wish": 4117,
      "another": 4118,
      "eria": 4119,
      "tri": 4120,
      "below": 4121,
      "tences": 4122,
      "past": 4123,
      "contract": 4124,
      "entit": 4125,
      "early": 4126,
      "fonctions": 4127,
      "milieu": 4128,
      "connaissance": 4129,
      "investment": 4130,
      "lateral": 4131,
      "solution": 4132,
      "tele": 4133,
      "formes": 4134,
      "aint": 4135,
      "relation": 4136,
      "principles": 4137,
      "priority": 4138,
      "fonctionnaires": 4139,
      "Directive": 4140,
      "encourage": 4141,
      "valeurs": 4142,
      "juridique": 4143,
      "equipment": 4144,
      "Ko": 4145,
      "test": 4146,
      "zer": 4147,
      "especial": 4148,
      "tish": 4149,
      "ana": 4150,
      "connu": 4151,
      "across": 4152,
      "pén": 4153,
      "notes": 4154,
      "mandate": 4155,
      "pension": 4156,
      "fournit": 4157,
      "PRO": 4158,
      "combat": 4159,
      "proceed": 4160,
      "Justice": 4161,
      "origine": 4162,
      "Brit": 4163,
      "TER": 4164,
      "rac": 4165,
      "émissions": 4166,
      "iné": 4167,
      "isées": 4168,
      "plor": 4169,
      "intervention": 4170,
      "ctors": 4171,
      "recours": 4172,
      "relating": 4173,
      "function": 4174,
      "Resources": 4175,
      "currently": 4176,
      "requested": 4177,
      "conflict": 4178,
      "Toronto": 4179,
      "especially": 4180,
      "vised": 4181,
      "titude": 4182,
      "larg": 4183,
      "higher": 4184,
      "representative": 4185,
      "military": 4186,
      "Amend": 4187,
      "64": 4188,
      "Cap": 4189,
      "remo": 4190,
      "together": 4191,
      "needed": 4192,
      "soins": 4193,
      "Consul": 4194,
      "éric": 4195,
      "prison": 4196,
      "sociaux": 4197,
      "Forum": 4198,
      "touch": 4199,
      "enfant": 4200,
      "opportunity": 4201,
      "situations": 4202,
      "FOR": 4203,
      "King": 4204,
      "Sh": 4205,
      "itable": 4206,
      "comité": 4207,
      "states": 4208,
      "anglais": 4209,
      "répondre": 4210,
      "suivants": 4211,
      "77": 4212,
      "Bu": 4213,
      "IM": 4214,
      "NG": 4215,
      "adu": 4216,
      "enseignement": 4217,
      "aven": 4218,
      "accor": 4219,
      "réponse": 4220,
      "close": 4221,
      "adequ": 4222,
      "--------": 4223,
      "months": 4224,
      "conducted": 4225,
      "Paci": 4226,
      "Ste": 4227,
      "ville": 4228,
      "exté": 4229,
      "publication": 4230,
      "durée": 4231,
      "objective": 4232,
      "Total": 4233,
      "financiers": 4234,
      "Soci": 4235,
      "benefit": 4236,
      "African": 4237,
      "vérification": 4238,
      "Selon": 4239,
      "demonstr": 4240,
      "las": 4241,
      "urer": 4242,
      "aujourd": 4243,
      "admis": 4244,
      "commission": 4245,
      "pendit": 4246,
      "indiqué": 4247,
      "hommes": 4248,
      "complete": 4249,
      "rieure": 4250,
      "statut": 4251,
      "compétences": 4252,
      "British": 4253,
      "departments": 4254,
      "Ren": 4255,
      "rendre": 4256,
      "tiers": 4257,
      "reference": 4258,
      "ality": 4259,
      "itaires": 4260,
      "renforcement": 4261,
      "Project": 4262,
      "chewan": 4263,
      "course": 4264,
      "publiques": 4265,
      "chives": 4266,
      "holders": 4267,
      "entraî": 4268,
      "Saskatchewan": 4269,
      "97": 4270,
      "Ed": 4271,
      "rural": 4272,
      "indépend": 4273,
      "cipl": 4274,
      "rench": 4275,
      "carry": 4276,
      "jud": 4277,
      "applications": 4278,
      "représentant": 4279,
      "processes": 4280,
      "intégration": 4281,
      "enquête": 4282,
      "Communications": 4283,
      "FC": 4284,
      "great": 4285,
      "word": 4286,
      "eration": 4287,
      "coordon": 4288,
      "Constitution": 4289,
      "voc": 4290,
      "cise": 4291,
      "créer": 4292,
      "according": 4293,
      "governmental": 4294,
      "authority": 4295,
      "amélioration": 4296,
      "referred": 4297,
      "Afghanistan": 4298,
      "Est": 4299,
      "MA": 4300,
      "days": 4301,
      "ene": 4302,
      "assu": 4303,
      "convention": 4304,
      "Child": 4305,
      "travailleurs": 4306,
      "économie": 4307,
      "administr": 4308,
      "attend": 4309,
      "sexu": 4310,
      "bonne": 4311,
      "Regulation": 4312,
      "diverses": 4313,
      "pauvre": 4314,
      "Membres": 4315,
      "Toutefois": 4316,
      ",\"": 4317,
      "Ger": 4318,
      "ders": 4319,
      "gender": 4320,
      "lish": 4321,
      "nations": 4322,
      "……": 4323,
      "ering": 4324,
      "urent": 4325,
      "compon": 4326,
      "compre": 4327,
      "contrat": 4328,
      "standard": 4329,
      "malad": 4330,
      "dernières": 4331,
      "discussions": 4332,
      "possibilité": 4333,
      "français": 4334,
      "Lan": 4335,
      "altern": 4336,
      "aries": 4337,
      "lage": 4338,
      "crime": 4339,
      "appeal": 4340,
      "Ministry": 4341,
      "ège": 4342,
      "étés": 4343,
      "lev": 4344,
      "itaire": 4345,
      "série": 4346,
      "montr": 4347,
      "Parti": 4348,
      "publics": 4349,
      "lande": 4350,
      "intég": 4351,
      "principaux": 4352,
      "législa": 4353,
      "give": 4354,
      "régional": 4355,
      "problems": 4356,
      "réseau": 4357,
      "57": 4358,
      "Further": 4359,
      "Mex": 4360,
      "Spe": 4361,
      "flow": 4362,
      "young": 4363,
      "ended": 4364,
      "audit": 4365,
      "expli": 4366,
      "pourraient": 4367,
      "traffic": 4368,
      "jury": 4369,
      "sensibil": 4370,
      "dirig": 4371,
      "comprehensive": 4372,
      "EL": 4373,
      "Go": 4374,
      "hos": 4375,
      "pared": 4376,
      "eness": 4377,
      "consu": 4378,
      "1993": 4379,
      "maintenant": 4380,
      "nécessité": 4381,
      "offre": 4382,
      "compliance": 4383,
      "66": 4384,
      "Over": 4385,
      "fut": 4386,
      "trave": 4387,
      "secu": 4388,
      "accompl": 4389,
      "liées": 4390,
      "minimum": 4391,
      "régime": 4392,
      "signal": 4393,
      "issued": 4394,
      "facilities": 4395,
      "suffic": 4396,
      "conséquent": 4397,
      "fondament": 4398,
      "intérêts": 4399,
      "By": 4400,
      "enz": 4401,
      "const": 4402,
      "présenté": 4403,
      "Executive": 4404,
      "gouvernementales": 4405,
      "essential": 4406,
      "collectivités": 4407,
      "She": 4408,
      "Sum": 4409,
      "estern": 4410,
      "tiveness": 4411,
      "annon": 4412,
      "department": 4413,
      "toire": 4414,
      "rati": 4415,
      "coming": 4416,
      "ciaux": 4417,
      "victimes": 4418,
      "directeur": 4419,
      "Corpor": 4420,
      "échelle": 4421,
      "contexte": 4422,
      "Etats": 4423,
      "Oper": 4424,
      "cées": 4425,
      "cru": 4426,
      "mus": 4427,
      "proposition": 4428,
      "former": 4429,
      "short": 4430,
      "includes": 4431,
      "amples": 4432,
      "attach": 4433,
      "évaluer": 4434,
      "innovation": 4435,
      "pauvreté": 4436,
      "HR": 4437,
      "Imp": 4438,
      "Som": 4439,
      "qués": 4440,
      "dées": 4441,
      "obst": 4442,
      "phys": 4443,
      "élevé": 4444,
      "adequate": 4445,
      "ECE": 4446,
      "cs": 4447,
      "reduction": 4448,
      "itage": 4449,
      "consolid": 4450,
      "nuclear": 4451,
      "nomin": 4452,
      "signed": 4453,
      "changement": 4454,
      "nombreuses": 4455,
      "canadiens": 4456,
      "accords": 4457,
      "constitution": 4458,
      "More": 4459,
      "oeuvre": 4460,
      "51": 4461,
      "French": 4462,
      "West": 4463,
      "gaz": 4464,
      "évent": 4465,
      "poin": 4466,
      "ablement": 4467,
      "stake": 4468,
      "carb": 4469,
      "claire": 4470,
      "priorities": 4471,
      "assurance": 4472,
      "financières": 4473,
      "individuals": 4474,
      "pleine": 4475,
      "volon": 4476,
      "BC": 4477,
      "Sw": 4478,
      "€™": 4479,
      "ensus": 4480,
      "ismes": 4481,
      "dule": 4482,
      "discipl": 4483,
      "visory": 4484,
      "plications": 4485,
      "Author": 4486,
      "establishment": 4487,
      "différentes": 4488,
      "Environmental": 4489,
      "Stand": 4490,
      "atteindre": 4491,
      "maximum": 4492,
      "sugges": 4493,
      "matériel": 4494,
      "Bien": 4495,
      "ides": 4496,
      "rant": 4497,
      "êmes": 4498,
      "recher": 4499,
      "conne": 4500,
      "acting": 4501,
      "meille": 4502,
      "belie": 4503,
      "manif": 4504,
      "prévention": 4505,
      "determine": 4506,
      "substances": 4507,
      "According": 4508,
      "annique": 4509,
      "pursuant": 4510,
      "civile": 4511,
      "Colu": 4512,
      "Treat": 4513,
      "dits": 4514,
      "nant": 4515,
      "telles": 4516,
      "lik": 4517,
      "agne": 4518,
      "become": 4519,
      "disposition": 4520,
      "prépar": 4521,
      "purpose": 4522,
      "faciliter": 4523,
      "responsable": 4524,
      "associated": 4525,
      "Poli": 4526,
      "aurait": 4527,
      "expressed": 4528,
      "paie": 4529,
      "apprenti": 4530,
      "réguli": 4531,
      "sufficient": 4532,
      "Cri": 4533,
      "SO": 4534,
      "labour": 4535,
      "contained": 4536,
      "sequent": 4537,
      "poses": 4538,
      "réserve": 4539,
      "extr": 4540,
      "interpre": 4541,
      "stated": 4542,
      "statement": 4543,
      "Ass": 4544,
      "félic": 4545,
      "stratégies": 4546,
      "fédérale": 4547,
      "Number": 4548,
      "deliver": 4549,
      "Colombie": 4550,
      "incorpor": 4551,
      "Saint": 4552,
      "aéri": 4553,
      "cés": 4554,
      "sens": 4555,
      "alie": 4556,
      "ands": 4557,
      "took": 4558,
      "behalf": 4559,
      "That": 4560,
      "presented": 4561,
      "profon": 4562,
      "Statis": 4563,
      "climate": 4564,
      "strategies": 4565,
      "glob": 4566,
      "réunions": 4567,
      "existence": 4568,
      "Ouest": 4569,
      "delegation": 4570,
      "English": 4571,
      "\",": 4572,
      "FA": 4573,
      "Tout": 4574,
      "iers": 4575,
      "mas": 4576,
      "ptions": 4577,
      "isée": 4578,
      "alia": 4579,
      "liés": 4580,
      "guar": 4581,
      "présenter": 4582,
      "What": 4583,
      "dernier": 4584,
      "limited": 4585,
      "agriculture": 4586,
      "communautaire": 4587,
      "keeping": 4588,
      "Amérique": 4589,
      "far": 4590,
      "him": 4591,
      "mary": 4592,
      "âge": 4593,
      "emphas": 4594,
      "personal": 4595,
      "1991": 4596,
      "importants": 4597,
      "faction": 4598,
      "facteurs": 4599,
      "placed": 4600,
      "biens": 4601,
      "While": 4602,
      "langues": 4603,
      "progres": 4604,
      "influence": 4605,
      "independent": 4606,
      "Jap": 4607,
      "NU": 4608,
      "rich": 4609,
      "ît": 4610,
      "arme": 4611,
      "ata": 4612,
      "until": 4613,
      "acté": 4614,
      "pover": 4615,
      "dép": 4616,
      "percent": 4617,
      "améric": 4618,
      "prepared": 4619,
      "engag": 4620,
      "operational": 4621,
      "chois": 4622,
      "indicated": 4623,
      "much": 4624,
      "défense": 4625,
      "acquis": 4626,
      "Protocole": 4627,
      "obstac": 4628,
      "My": 4629,
      "Por": 4630,
      "publish": 4631,
      "insta": 4632,
      "rendu": 4633,
      "approval": 4634,
      "matter": 4635,
      "permettant": 4636,
      "quelques": 4637,
      "bring": 4638,
      "postes": 4639,
      "Columb": 4640,
      "42": 4641,
      "Glo": 4642,
      "Home": 4643,
      "Sp": 4644,
      "Sci": 4645,
      "tier": 4646,
      "isations": 4647,
      "urban": 4648,
      "asp": 4649,
      "proto": 4650,
      "mosph": 4651,
      "shop": 4652,
      "photo": 4653,
      "colon": 4654,
      "cycle": 4655,
      "princi": 4656,
      "constitue": 4657,
      "reçu": 4658,
      "Columbia": 4659,
      "Federal": 4660,
      "Tur": 4661,
      "ek": 4662,
      "orie": 4663,
      "quo": 4664,
      "reste": 4665,
      "aller": 4666,
      "Review": 4667,
      "done": 4668,
      "continuer": 4669,
      "conclusions": 4670,
      "mocratic": 4671,
      "Territ": 4672,
      "Bank": 4673,
      "addressed": 4674,
      "principe": 4675,
      "bar": 4676,
      "eaux": 4677,
      "gées": 4678,
      "having": 4679,
      "tise": 4680,
      "designed": 4681,
      "début": 4682,
      "interpré": 4683,
      "regions": 4684,
      "ically": 4685,
      "normal": 4686,
      "estima": 4687,
      "mately": 4688,
      "relationship": 4689,
      "regulations": 4690,
      "circum": 4691,
      "réglementation": 4692,
      "Sa": 4693,
      "davantage": 4694,
      "gas": 4695,
      "ose": 4696,
      "plut": 4697,
      "coût": 4698,
      "illé": 4699,
      "visions": 4700,
      "prévoit": 4701,
      "contrô": 4702,
      "menting": 4703,
      "laws": 4704,
      "collective": 4705,
      "mediate": 4706,
      "latory": 4707,
      "conseils": 4708,
      "mécanismes": 4709,
      "Cal": 4710,
      "DG": 4711,
      "Yuk": 4712,
      "body": 4713,
      "equal": 4714,
      "haut": 4715,
      "sû": 4716,
      "alités": 4717,
      "arma": 4718,
      "options": 4719,
      "internal": 4720,
      "fiée": 4721,
      "consac": 4722,
      "cannot": 4723,
      "board": 4724,
      "fourni": 4725,
      "When": 4726,
      "réalisation": 4727,
      "proposal": 4728,
      "possibilités": 4729,
      "quoi": 4730,
      "neu": 4731,
      "diminu": 4732,
      "dolog": 4733,
      "produced": 4734,
      "ANS": 4735,
      "client": 4736,
      "join": 4737,
      "militaire": 4738,
      "Charter": 4739,
      "integrated": 4740,
      "Palestin": 4741,
      "gée": 4742,
      "gets": 4743,
      "rue": 4744,
      "uit": 4745,
      "lai": 4746,
      "verse": 4747,
      "grad": 4748,
      "érences": 4749,
      "donne": 4750,
      "pending": 4751,
      "ruption": 4752,
      "organisme": 4753,
      "justi": 4754,
      "avantages": 4755,
      "Direc": 4756,
      "appliquer": 4757,
      "instrument": 4758,
      "revenu": 4759,
      "problem": 4760,
      "reduce": 4761,
      "modern": 4762,
      "fabric": 4763,
      "Bas": 4764,
      "fave": 4765,
      "ha": 4766,
      "ettes": 4767,
      "seul": 4768,
      "comprend": 4769,
      "resource": 4770,
      "code": 4771,
      "prevent": 4772,
      "secret": 4773,
      "conclusion": 4774,
      "known": 4775,
      "America": 4776,
      "disponibles": 4777,
      "Initiative": 4778,
      "poverty": 4779,
      "87": 4780,
      "LES": 4781,
      "categ": 4782,
      "evalu": 4783,
      "pati": 4784,
      "volu": 4785,
      "argu": 4786,
      "atmosph": 4787,
      "aume": 4788,
      "dessus": 4789,
      "concurr": 4790,
      "champ": 4791,
      "tait": 4792,
      "communautés": 4793,
      "subsi": 4794,
      "impli": 4795,
      "assist": 4796,
      "structures": 4797,
      "ssage": 4798,
      "environnementale": 4799,
      "applied": 4800,
      "critères": 4801,
      "déclaré": 4802,
      "name": 4803,
      "débat": 4804,
      "supplémentaires": 4805,
      "citoyens": 4806,
      "Du": 4807,
      "York": 4808,
      "vas": 4809,
      "ète": 4810,
      "quée": 4811,
      "expendit": 4812,
      "chef": 4813,
      "lang": 4814,
      "approved": 4815,
      "diffusion": 4816,
      "correc": 4817,
      "famili": 4818,
      "affected": 4819,
      "provisoire": 4820,
      "University": 4821,
      "Mus": 4822,
      "Non": 4823,
      "cted": 4824,
      "mêmes": 4825,
      "isms": 4826,
      "top": 4827,
      "today": 4828,
      "interne": 4829,
      "company": 4830,
      "transports": 4831,
      "few": 4832,
      "consistent": 4833,
      "appell": 4834,
      "CEF": 4835,
      "effort": 4836,
      "funds": 4837,
      "letter": 4838,
      "installations": 4839,
      "carried": 4840,
      "interests": 4841,
      "arrangements": 4842,
      "Yukon": 4843,
      "faveur": 4844,
      "Agr": 4845,
      "Har": 4846,
      "Mc": 4847,
      "drug": 4848,
      "lay": 4849,
      "mode": 4850,
      "organes": 4851,
      "présence": 4852,
      "collabor": 4853,
      "draw": 4854,
      "marchand": 4855,
      "Prin": 4856,
      "index": 4857,
      "satisfaction": 4858,
      "others": 4859,
      "électronique": 4860,
      "awareness": 4861,
      "46": 4862,
      "FR": 4863,
      "QU": 4864,
      "dri": 4865,
      "lent": 4866,
      "rom": 4867,
      "ule": 4868,
      "anies": 4869,
      "cross": 4870,
      "modèle": 4871,
      "handic": 4872,
      "outils": 4873,
      "plutôt": 4874,
      "River": 4875,
      "either": 4876,
      "tir": 4877,
      "union": 4878,
      "parmi": 4879,
      "ably": 4880,
      "formul": 4881,
      "ief": 4882,
      "tivity": 4883,
      "caracté": 4884,
      "located": 4885,
      "corre": 4886,
      "contribute": 4887,
      "responsables": 4888,
      "committed": 4889,
      "protéger": 4890,
      "Agric": 4891,
      "IA": 4892,
      "og": 4893,
      "ennes": 4894,
      "unch": 4895,
      "parent": 4896,
      "exp": 4897,
      "excell": 4898,
      "share": 4899,
      "values": 4900,
      "ministéri": 4901,
      "rule": 4902,
      "concerns": 4903,
      "issements": 4904,
      "directement": 4905,
      "factors": 4906,
      "candidats": 4907,
      "sorte": 4908,
      "paid": 4909,
      "American": 4910,
      "investissement": 4911,
      "arbit": 4912,
      "Royaume": 4913,
      "average": 4914,
      "likely": 4915,
      "handicap": 4916,
      "Let": 4917,
      "Some": 4918,
      "electron": 4919,
      "tâ": 4920,
      "lease": 4921,
      "tox": 4922,
      "exprim": 4923,
      "serious": 4924,
      "formal": 4925,
      "ounds": 4926,
      "tivité": 4927,
      "governments": 4928,
      "négociations": 4929,
      "Version": 4930,
      "43": 4931,
      "IP": 4932,
      "Lim": 4933,
      "One": 4934,
      "Since": 4935,
      "ensur": 4936,
      "thus": 4937,
      "conta": 4938,
      "manner": 4939,
      "weap": 4940,
      "faits": 4941,
      "prévues": 4942,
      "Brun": 4943,
      "suivantes": 4944,
      "liberté": 4945,
      "précédent": 4946,
      "NA": 4947,
      "UL": 4948,
      "home": 4949,
      "ink": 4950,
      "rejet": 4951,
      "dimen": 4952,
      "certific": 4953,
      "privé": 4954,
      "candidates": 4955,
      "Budget": 4956,
      "EUR": 4957,
      "Fran": 4958,
      "Ira": 4959,
      "might": 4960,
      "rates": 4961,
      "élè": 4962,
      "onom": 4963,
      "atures": 4964,
      "description": 4965,
      "accu": 4966,
      "mean": 4967,
      "compet": 4968,
      "requires": 4969,
      "affaire": 4970,
      "régionaux": 4971,
      "expert": 4972,
      "pilo": 4973,
      "Technolog": 4974,
      "entitled": 4975,
      "marchandises": 4976,
      "CD": 4977,
      "Can": 4978,
      "Sco": 4979,
      "Vo": 4980,
      "estime": 4981,
      "ennent": 4982,
      "thing": 4983,
      "entrée": 4984,
      "prohib": 4985,
      "parents": 4986,
      "surance": 4987,
      "Inde": 4988,
      "ouverture": 4989,
      "collection": 4990,
      "faite": 4991,
      "throughout": 4992,
      "directives": 4993,
      "purposes": 4994,
      "criteria": 4995,
      "asked": 4996,
      "relativement": 4997,
      "compét": 4998,
      "juridiques": 4999,
      "Administration": 5000,
      "apprentissage": 5001,
      "caractéris": 5002,
      "Che": 5003,
      "bur": 5004,
      "ja": 5005,
      "parce": 5006,
      "tabl": 5007,
      "surface": 5008,
      "front": 5009,
      "companies": 5010,
      "rappe": 5011,
      "basic": 5012,
      "budgé": 5013,
      "expertise": 5014,
      "ancouver": 5015,
      "Decis": 5016,
      "décidé": 5017,
      ">>": 5018,
      "cée": 5019,
      "fall": 5020,
      "intitu": 5021,
      "eries": 5022,
      "ara": 5023,
      "ciale": 5024,
      "tability": 5025,
      "servir": 5026,
      "Represent": 5027,
      "autom": 5028,
      "fuge": 5029,
      "science": 5030,
      "media": 5031,
      "évolution": 5032,
      "sommes": 5033,
      "competition": 5034,
      "faisant": 5035,
      "studies": 5036,
      "faible": 5037,
      "613": 5038,
      "98": 5039,
      "Arab": 5040,
      "CT": 5041,
      "Dr": 5042,
      "Lib": 5043,
      "Slo": 5044,
      "Vancouver": 5045,
      "iled": 5046,
      "lementing": 5047,
      "visit": 5048,
      "overall": 5049,
      "Protection": 5050,
      "langue": 5051,
      "plication": 5052,
      "protect": 5053,
      "called": 5054,
      "Prof": 5055,
      "financier": 5056,
      "toutefois": 5057,
      "property": 5058,
      "circumstances": 5059,
      "cust": 5060,
      "lits": 5061,
      "ov": 5062,
      "ancial": 5063,
      "content": 5064,
      "acci": 5065,
      "parlement": 5066,
      "sud": 5067,
      "matic": 5068,
      "mains": 5069,
      "tual": 5070,
      "venue": 5071,
      "idance": 5072,
      "directly": 5073,
      "understanding": 5074,
      "fronti": 5075,
      "stream": 5076,
      "CA": 5077,
      "CP": 5078,
      "OP": 5079,
      "réf": 5080,
      "ids": 5081,
      "safe": 5082,
      "numéro": 5083,
      "chargé": 5084,
      "troisième": 5085,
      "copie": 5086,
      "prennent": 5087,
      "tréal": 5088,
      "events": 5089,
      "limité": 5090,
      "offrir": 5091,
      "victims": 5092,
      "fir": 5093,
      "gent": 5094,
      "yl": 5095,
      "tirer": 5096,
      "lequel": 5097,
      "trouve": 5098,
      "comprendre": 5099,
      "doc": 5100,
      "compens": 5101,
      "Déc": 5102,
      "torture": 5103,
      "modifications": 5104,
      "appelant": 5105,
      "Regis": 5106,
      "delivery": 5107,
      "transfert": 5108,
      "decided": 5109,
      "engagements": 5110,
      "Amen": 5111,
      "PAR": 5112,
      "ik": 5113,
      "partement": 5114,
      "via": 5115,
      "ames": 5116,
      "passe": 5117,
      "ienne": 5118,
      "ministres": 5119,
      "Meeting": 5120,
      "importantes": 5121,
      "committee": 5122,
      "pouv": 5123,
      "dernière": 5124,
      "Syste": 5125,
      "mechanisms": 5126,
      "integration": 5127,
      "fiscal": 5128,
      "citizens": 5129,
      "Amendment": 5130,
      "pointed": 5131,
      "iles": 5132,
      "éro": 5133,
      "tools": 5134,
      "liens": 5135,
      "load": 5136,
      "riel": 5137,
      "model": 5138,
      "élément": 5139,
      "partenariat": 5140,
      "announ": 5141,
      "swick": 5142,
      "accroître": 5143,
      "DA": 5144,
      "FI": 5145,
      "Main": 5146,
      "TS": 5147,
      "bul": 5148,
      "uration": 5149,
      "chim": 5150,
      "begin": 5151,
      "tenues": 5152,
      "Party": 5153,
      "matters": 5154,
      "Although": 5155,
      "space": 5156,
      "demander": 5157,
      "médias": 5158,
      "danger": 5159,
      "pollution": 5160,
      "Atlantic": 5161,
      "responsabilités": 5162,
      "Britannique": 5163,
      "During": 5164,
      "Mor": 5165,
      "writ": 5166,
      "én": 5167,
      "terre": 5168,
      "préci": 5169,
      "Commissioner": 5170,
      "return": 5171,
      "contribuer": 5172,
      "placement": 5173,
      "reasons": 5174,
      "calcul": 5175,
      "Cependant": 5176,
      "expression": 5177,
      "clés": 5178,
      "figure": 5179,
      "travailler": 5180,
      "pêche": 5181,
      "clairement": 5182,
      "Don": 5183,
      "MO": 5184,
      "Net": 5185,
      "tance": 5186,
      "isant": 5187,
      "aliné": 5188,
      "around": 5189,
      "proli": 5190,
      "tables": 5191,
      "permit": 5192,
      "nium": 5193,
      "critical": 5194,
      "Archives": 5195,
      "profit": 5196,
      "character": 5197,
      "associations": 5198,
      "Financial": 5199,
      "languages": 5200,
      "ancing": 5201,
      "orientation": 5202,
      "informed": 5203,
      "connaître": 5204,
      "secrétariat": 5205,
      "stakeholders": 5206,
      "Brunswick": 5207,
      "94": 5208,
      "eas": 5209,
      "fair": 5210,
      "freed": 5211,
      "pp": 5212,
      "ête": 5213,
      "ralement": 5214,
      "réser": 5215,
      "délai": 5216,
      "exchange": 5217,
      "appoint": 5218,
      "ection": 5219,
      "logique": 5220,
      "locaux": 5221,
      "Direction": 5222,
      "proposé": 5223,
      "Montréal": 5224,
      "Tele": 5225,
      "haus": 5226,
      "espèce": 5227,
      "negotiations": 5228,
      "physi": 5229,
      ")(": 5230,
      "Loc": 5231,
      "WP": 5232,
      "gn": 5233,
      "échange": 5234,
      "remb": 5235,
      "lait": 5236,
      "composition": 5237,
      "explor": 5238,
      "puty": 5239,
      "commis": 5240,
      "dispar": 5241,
      "journal": 5242,
      "osph": 5243,
      "succès": 5244,
      "Institute": 5245,
      "urgence": 5246,
      "élaborer": 5247,
      "enregistre": 5248,
      "adresse": 5249,
      "**": 5250,
      "hes": 5251,
      "iation": 5252,
      "mage": 5253,
      "tand": 5254,
      "vres": 5255,
      "quées": 5256,
      "unité": 5257,
      "rables": 5258,
      "dipl": 5259,
      "maire": 5260,
      "surtout": 5261,
      "fiés": 5262,
      "relatifs": 5263,
      "Assess": 5264,
      "mates": 5265,
      "ING": 5266,
      "criminal": 5267,
      "documentation": 5268,
      "rieures": 5269,
      "closure": 5270,
      "pied": 5271,
      "employee": 5272,
      "Russie": 5273,
      "intervenants": 5274,
      "guidelines": 5275,
      "economy": 5276,
      "Bul": 5277,
      "Education": 5278,
      "Win": 5279,
      "dr": 5280,
      "hours": 5281,
      "échan": 5282,
      "convient": 5283,
      "sectors": 5284,
      "plant": 5285,
      "sessions": 5286,
      "product": 5287,
      "caract": 5288,
      "capit": 5289,
      "conflit": 5290,
      "fugi": 5291,
      "Cela": 5292,
      "naturelles": 5293,
      "tableau": 5294,
      "modification": 5295,
      "receive": 5296,
      "navi": 5297,
      "prévu": 5298,
      "defined": 5299,
      "incidence": 5300,
      "Treaty": 5301,
      "EX": 5302,
      "Fed": 5303,
      "MS": 5304,
      "Ques": 5305,
      "atif": 5306,
      "bation": 5307,
      "ium": 5308,
      "sté": 5309,
      "arily": 5310,
      "launch": 5311,
      "parts": 5312,
      "neur": 5313,
      "terrain": 5314,
      "poor": 5315,
      "heure": 5316,
      "renouve": 5317,
      "assis": 5318,
      "came": 5319,
      "examiné": 5320,
      "craft": 5321,
      "Appe": 5322,
      "violations": 5323,
      "53": 5324,
      "56": 5325,
      "aqu": 5326,
      "afric": 5327,
      "él": 5328,
      "ash": 5329,
      "connex": 5330,
      "formed": 5331,
      "rémun": 5332,
      "visite": 5333,
      "Lake": 5334,
      "genous": 5335,
      "approxi": 5336,
      "consultatif": 5337,
      "text": 5338,
      "utilisé": 5339,
      "primary": 5340,
      "définition": 5341,
      "mentioned": 5342,
      "Peace": 5343,
      "statistiques": 5344,
      "covered": 5345,
      "learning": 5346,
      "supported": 5347,
      "CANAD": 5348,
      "Central": 5349,
      "Framework": 5350,
      "Lt": 5351,
      "Op": 5352,
      "flo": 5353,
      "rem": 5354,
      "veiller": 5355,
      "propositions": 5356,
      "procure": 5357,
      "témo": 5358,
      "gran": 5359,
      "lectric": 5360,
      "legisla": 5361,
      "appuyer": 5362,
      "Point": 5363,
      "sexes": 5364,
      "enhance": 5365,
      "single": 5366,
      "AAAAAAAAAAAAAAAA": 5367,
      "Nouvelle": 5368,
      "medical": 5369,
      "LO": 5370,
      "Wil": 5371,
      "ather": 5372,
      "dÃ": 5373,
      "évé": 5374,
      "relè": 5375,
      "iso": 5376,
      "teach": 5377,
      "auteurs": 5378,
      "fort": 5379,
      "near": 5380,
      "révis": 5381,
      "oples": 5382,
      "ousing": 5383,
      "relatif": 5384,
      "implementing": 5385,
      "operate": 5386,
      "Ministers": 5387,
      "fonctionnement": 5388,
      "completed": 5389,
      "statements": 5390,
      "Indian": 5391,
      "fault": 5392,
      "humanitarian": 5393,
      "Particip": 5394,
      "Après": 5395,
      "GE": 5396,
      "Gaz": 5397,
      "Mac": 5398,
      "Pat": 5399,
      "bir": 5400,
      "écrit": 5401,
      "reform": 5402,
      "alleg": 5403,
      "ico": 5404,
      "anda": 5405,
      "user": 5406,
      "aisse": 5407,
      "gens": 5408,
      "create": 5409,
      "initial": 5410,
      "implemented": 5411,
      "bénéfici": 5412,
      "facilitate": 5413,
      "Regional": 5414,
      "adul": 5415,
      "appellant": 5416,
      "IB": 5417,
      "denti": 5418,
      "fré": 5419,
      "remains": 5420,
      "accueil": 5421,
      "propre": 5422,
      "ulté": 5423,
      "compared": 5424,
      "décou": 5425,
      "diversité": 5426,
      "étranger": 5427,
      "complaint": 5428,
      "alimentaire": 5429,
      "garantir": 5430,
      "Iraq": 5431,
      "91": 5432,
      "Sé": 5433,
      "Sal": 5434,
      "educ": 5435,
      "fire": 5436,
      "decre": 5437,
      "arms": 5438,
      "propres": 5439,
      "living": 5440,
      "nutr": 5441,
      "route": 5442,
      "ctoral": 5443,
      "organized": 5444,
      "trices": 5445,
      "établissements": 5446,
      "conduct": 5447,
      "violation": 5448,
      "dynam": 5449,
      "Ty": 5450,
      "Vice": 5451,
      "ive": 5452,
      "mical": 5453,
      "enforcement": 5454,
      "inant": 5455,
      "remar": 5456,
      "ché": 5457,
      "moine": 5458,
      "dispos": 5459,
      "ventions": 5460,
      "empê": 5461,
      "généralement": 5462,
      "lignes": 5463,
      "recommended": 5464,
      "Ministre": 5465,
      "actuelle": 5466,
      "Environnement": 5467,
      "reduced": 5468,
      "Ltd": 5469,
      "52": 5470,
      "96": 5471,
      "Fish": 5472,
      "Sous": 5473,
      "aï": 5474,
      "emissions": 5475,
      "èrent": 5476,
      "ert": 5477,
      "sema": 5478,
      "file": 5479,
      "plainte": 5480,
      "lower": 5481,
      "consis": 5482,
      "spective": 5483,
      "intéress": 5484,
      "principle": 5485,
      "youth": 5486,
      "clearly": 5487,
      "survey": 5488,
      "humains": 5489,
      "délégations": 5490,
      "requests": 5491,
      "successful": 5492,
      "oxy": 5493,
      "physical": 5494,
      "éventu": 5495,
      "Amendement": 5496,
      "Ber": 5497,
      "Dar": 5498,
      "East": 5499,
      "GC": 5500,
      "gain": 5501,
      "run": 5502,
      "enable": 5503,
      "lesquels": 5504,
      "ilip": 5505,
      "raine": 5506,
      "poly": 5507,
      "abin": 5508,
      "abord": 5509,
      "mess": 5510,
      "prevention": 5511,
      "prescri": 5512,
      "credit": 5513,
      "identification": 5514,
      "Northern": 5515,
      "professional": 5516,
      "militaires": 5517,
      "patri": 5518,
      "%.": 5519,
      "Bur": 5520,
      "Mont": 5521,
      "Uk": 5522,
      "dite": 5523,
      "fra": 5524,
      "endu": 5525,
      "conference": 5526,
      "selection": 5527,
      "forward": 5528,
      "pers": 5529,
      "find": 5530,
      "Depuis": 5531,
      "cepti": 5532,
      "participate": 5533,
      "matières": 5534,
      "priorité": 5535,
      "industri": 5536,
      "indicateurs": 5537,
      "moyenne": 5538,
      "essentiel": 5539,
      "grandes": 5540,
      "prestation": 5541,
      "chapitre": 5542,
      "Kingdom": 5543,
      "avenir": 5544,
      "Bos": 5545,
      "Fig": 5546,
      "bat": 5547,
      "lion": 5548,
      "ligh": 5549,
      "poursuivre": 5550,
      "immediate": 5551,
      "présentant": 5552,
      "applicant": 5553,
      "And": 5554,
      "conflits": 5555,
      "indicators": 5556,
      "actual": 5557,
      "annuel": 5558,
      "Room": 5559,
      "raisonn": 5560,
      "Prior": 5561,
      "Numéro": 5562,
      "responsibilities": 5563,
      "Company": 5564,
      "Strategy": 5565,
      "%)": 5566,
      "300": 5567,
      "400": 5568,
      "Site": 5569,
      "ah": 5570,
      "cks": 5571,
      "vation": 5572,
      "isent": 5573,
      "constat": 5574,
      "opti": 5575,
      "finding": 5576,
      "entrepren": 5577,
      "sociétés": 5578,
      "mix": 5579,
      "centrale": 5580,
      "views": 5581,
      "Respon": 5582,
      "intelle": 5583,
      "Head": 5584,
      "trict": 5585,
      "proposals": 5586,
      "propriété": 5587,
      "scope": 5588,
      "rapidement": 5589,
      "véhicules": 5590,
      "recherches": 5591,
      "Business": 5592,
      "DR": 5593,
      "lant": 5594,
      "rang": 5595,
      "thè": 5596,
      "along": 5597,
      "rather": 5598,
      "tale": 5599,
      "dération": 5600,
      "extra": 5601,
      "survi": 5602,
      "accent": 5603,
      "suscepti": 5604,
      "principales": 5605,
      "raisons": 5606,
      "See": 5607,
      "lettre": 5608,
      "éché": 5609,
      "students": 5610,
      "micro": 5611,
      "materials": 5612,
      "Annexe": 5613,
      "........": 5614,
      "Officer": 5615,
      "methods": 5616,
      "chacun": 5617,
      "proceedings": 5618,
      "compétence": 5619,
      "85": 5620,
      "Alle": 5621,
      "Nom": 5622,
      "ame": 5623,
      "equality": 5624,
      "wat": 5625,
      "ède": 5626,
      "dee": 5627,
      "default": 5628,
      "ised": 5629,
      "provenant": 5630,
      "immigration": 5631,
      "endro": 5632,
      "istant": 5633,
      "passé": 5634,
      "iennes": 5635,
      "clair": 5636,
      "illez": 5637,
      "selves": 5638,
      "ranch": 5639,
      "...": 5640,
      "conformité": 5641,
      "favoriser": 5642,
      "tribun": 5643,
      "restrictions": 5644,
      "html": 5645,
      "nucléaires": 5646,
      "travel": 5647,
      "consolidation": 5648,
      "intellectu": 5649,
      "212": 5650,
      "Fore": 5651,
      "dan": 5652,
      "kg": 5653,
      "psy": 5654,
      "rir": 5655,
      "ongoing": 5656,
      "mateurs": 5657,
      "rencontr": 5658,
      "undertaken": 5659,
      "indique": 5660,
      "traités": 5661,
      "1987": 5662,
      "URL": 5663,
      "volun": 5664,
      "éviter": 5665,
      "suivante": 5666,
      "recognized": 5667,
      "pleinement": 5668,
      "estimated": 5669,
      "Télé": 5670,
      "Western": 5671,
      "house": 5672,
      "insi": 5673,
      "seas": 5674,
      "sim": 5675,
      "advice": 5676,
      "agir": 5677,
      "extent": 5678,
      "maintain": 5679,
      "financing": 5680,
      "Note": 5681,
      "markets": 5682,
      "stratégiques": 5683,
      "sett": 5684,
      "effectively": 5685,
      "cueill": 5686,
      "pouvoirs": 5687,
      "intended": 5688,
      "efficaces": 5689,
      "schools": 5690,
      "installation": 5691,
      "subsidi": 5692,
      "CB": 5693,
      "elements": 5694,
      "confi": 5695,
      "réper": 5696,
      "star": 5697,
      "tenance": 5698,
      "marine": 5699,
      "socio": 5700,
      "supply": 5701,
      "impacts": 5702,
      "offices": 5703,
      "lling": 5704,
      "règlements": 5705,
      "étrangers": 5706,
      "terrorisme": 5707,
      "méthode": 5708,
      "concentrations": 5709,
      "Employment": 5710,
      "72": 5711,
      "FP": 5712,
      "Gre": 5713,
      "PDF": 5714,
      "ains": 5715,
      "nit": 5716,
      "rend": 5717,
      "yet": 5718,
      "meil": 5719,
      "pois": 5720,
      "atell": 5721,
      "aircraft": 5722,
      "izing": 5723,
      "Chief": 5724,
      "class": 5725,
      "assets": 5726,
      "sections": 5727,
      "spati": 5728,
      "substanti": 5729,
      "Charte": 5730,
      "investissements": 5731,
      "tribunal": 5732,
      "communiquer": 5733,
      "external": 5734,
      "concept": 5735,
      "ensuring": 5736,
      "alinéa": 5737,
      "78": 5738,
      "Os": 5739,
      "bro": 5740,
      "vacc": 5741,
      "ève": 5742,
      "itself": 5743,
      "look": 5744,
      "dise": 5745,
      "comptes": 5746,
      "subsection": 5747,
      "organisé": 5748,
      "retour": 5749,
      "Audit": 5750,
      "Accueil": 5751,
      "régionales": 5752,
      "follows": 5753,
      "utilisés": 5754,
      "sexual": 5755,
      "regulatory": 5756,
      "Jean": 5757,
      "skills": 5758,
      "introduced": 5759,
      "Authority": 5760,
      "Decision": 5761,
      "Federation": 5762,
      "54": 5763,
      "73": 5764,
      "76": 5765,
      "Fé": 5766,
      "LI": 5767,
      "dam": 5768,
      "hap": 5769,
      "rol": 5770,
      "ster": 5771,
      "esse": 5772,
      "ining": 5773,
      "ley": 5774,
      "atten": 5775,
      "accompag": 5776,
      "portée": 5777,
      "miss": 5778,
      "aimed": 5779,
      "numé": 5780,
      "juge": 5781,
      "adopter": 5782,
      "histoire": 5783,
      "brief": 5784,
      "catégorie": 5785,
      "lacement": 5786,
      "UNICEF": 5787,
      "Koso": 5788,
      "armement": 5789,
      "published": 5790,
      "Palestinian": 5791,
      "caractère": 5792,
      "Cro": 5793,
      "km": 5794,
      "assemb": 5795,
      "separ": 5796,
      "forum": 5797,
      "ray": 5798,
      "réforme": 5799,
      "expan": 5800,
      "bel": 5801,
      "allég": 5802,
      "outside": 5803,
      "guerre": 5804,
      "contrats": 5805,
      "valent": 5806,
      "constituent": 5807,
      "répond": 5808,
      "association": 5809,
      "défini": 5810,
      "spéciale": 5811,
      "temper": 5812,
      "voyage": 5813,
      "introduction": 5814,
      "volume": 5815,
      "electronic": 5816,
      "EA": 5817,
      "dû": 5818,
      "fail": 5819,
      "plement": 5820,
      "zation": 5821,
      "erve": 5822,
      "unit": 5823,
      "réfugi": 5824,
      "apporter": 5825,
      "stage": 5826,
      "consensus": 5827,
      "effectiveness": 5828,
      "examine": 5829,
      "commitments": 5830,
      "indemn": 5831,
      "agricultural": 5832,
      "défis": 5833,
      "treaty": 5834,
      "dangere": 5835,
      "detailed": 5836,
      "détaill": 5837,
      "COMM": 5838,
      "Person": 5839,
      "Agriculture": 5840,
      "weapons": 5841,
      "Déclaration": 5842,
      "written": 5843,
      "Assessment": 5844,
      "92": 5845,
      "Haut": 5846,
      "Iran": 5847,
      "Pres": 5848,
      "band": 5849,
      "farm": 5850,
      "”.": 5851,
      "contenu": 5852,
      "chets": 5853,
      "déploy": 5854,
      "renew": 5855,
      "keting": 5856,
      "occur": 5857,
      "consci": 5858,
      "officers": 5859,
      "rought": 5860,
      "Coordin": 5861,
      "autorité": 5862,
      "improved": 5863,
      "sensi": 5864,
      "majorité": 5865,
      "piè": 5866,
      "determined": 5867,
      "enquêtes": 5868,
      "participé": 5869,
      "Russian": 5870,
      "Official": 5871,
      "vehicle": 5872,
      "extérieur": 5873,
      "Global": 5874,
      "contamin": 5875,
      "Kosovo": 5876,
      "Esp": 5877,
      "Fac": 5878,
      "Land": 5879,
      "Scho": 5880,
      "Treas": 5881,
      "WG": 5882,
      "elig": 5883,
      "gary": 5884,
      "mm": 5885,
      "mid": 5886,
      "uis": 5887,
      "usu": 5888,
      "étro": 5889,
      "armed": 5890,
      "pron": 5891,
      "atoires": 5892,
      "live": 5893,
      "imes": 5894,
      "Congo": 5895,
      "vente": 5896,
      "workshop": 5897,
      "fondée": 5898,
      "steps": 5899,
      "useum": 5900,
      "created": 5901,
      "juste": 5902,
      "décrit": 5903,
      "functions": 5904,
      "industrial": 5905,
      "calcu": 5906,
      "fournisse": 5907,
      "1988": 5908,
      "familles": 5909,
      "families": 5910,
      "candidate": 5911,
      "seule": 5912,
      "conséquences": 5913,
      "significantly": 5914,
      "officials": 5915,
      "magne": 5916,
      "described": 5917,
      "amendments": 5918,
      "manufact": 5919,
      "dossier": 5920,
      "obstacles": 5921,
      "Hist": 5922,
      "SA": 5923,
      "Stu": 5924,
      "nord": 5925,
      "oise": 5926,
      "deploy": 5927,
      "letin": 5928,
      "prac": 5929,
      "simi": 5930,
      "station": 5931,
      "Inv": 5932,
      "commune": 5933,
      "continues": 5934,
      "establishing": 5935,
      "balance": 5936,
      "link": 5937,
      "autorisation": 5938,
      "agricoles": 5939,
      "aura": 5940,
      "ological": 5941,
      "vulné": 5942,
      "governance": 5943,
      "démocratique": 5944,
      "Contact": 5945,
      "jurisdiction": 5946,
      "sensibilisation": 5947,
      "Princip": 5948,
      "GI": 5949,
      "RI": 5950,
      "War": 5951,
      "bou": 5952,
      "gative": 5953,
      "palestin": 5954,
      "refuge": 5955,
      "entente": 5956,
      "oman": 5957,
      "added": 5958,
      "tative": 5959,
      "move": 5960,
      "obtained": 5961,
      "Projet": 5962,
      "Provin": 5963,
      "aise": 5964,
      "merci": 5965,
      "CEE": 5966,
      "principalement": 5967,
      "Prom": 5968,
      "generally": 5969,
      "exige": 5970,
      "Affaires": 5971,
      "scale": 5972,
      "traditional": 5973,
      "prestations": 5974,
      "Foreign": 5975,
      "Vous": 5976,
      "comments": 5977,
      "déposé": 5978,
      "series": 5979,
      "amment": 5980,
      "guidance": 5981,
      "crimes": 5982,
      "signature": 5983,
      "climatiques": 5984,
      "instance": 5985,
      "quelque": 5986,
      "déclarations": 5987,
      "acceptable": 5988,
      "mécanisme": 5989,
      "Support": 5990,
      "difficultés": 5991,
      "inspection": 5992,
      "Ukraine": 5993,
      "Figure": 5994,
      ".-": 5995,
      "Ben": 5996,
      "Bra": 5997,
      "Lo": 5998,
      "Mil": 5999,
      "Sen": 6000,
      "Sus": 6001,
      "Val": 6002,
      "paper": 6003,
      "ening": 6004,
      "threat": 6005,
      "aster": 6006,
      "siè": 6007,
      "actes": 6008,
      "rage": 6009,
      "récent": 6010,
      "usage": 6011,
      "porté": 6012,
      "vide": 6013,
      "intermédi": 6014,
      "dispens": 6015,
      "outcomes": 6016,
      "phosph": 6017,
      "contracts": 6018,
      "billion": 6019,
      "logical": 6020,
      "autonom": 6021,
      "ducing": 6022,
      "intéres": 6023,
      "thodolog": 6024,
      "résor": 6025,
      "mortal": 6026,
      "propose": 6027,
      "garan": 6028,
      "majority": 6029,
      "habitu": 6030,
      "People": 6031,
      "terrorism": 6032,
      "approximately": 6033,
      "Treasury": 6034,
      "AID": 6035,
      "Bar": 6036,
      "Food": 6037,
      "fel": 6038,
      "kers": 6039,
      "rice": 6040,
      "vit": 6041,
      "destru": 6042,
      "concil": 6043,
      "rid": 6044,
      "beh": 6045,
      "dispose": 6046,
      "préal": 6047,
      "presence": 6048,
      "ouvert": 6049,
      "présentée": 6050,
      "whose": 6051,
      "funda": 6052,
      "lined": 6053,
      "rown": 6054,
      "étrangères": 6055,
      "stock": 6056,
      "respecter": 6057,
      "scientifiques": 6058,
      "humanitaire": 6059,
      "horiz": 6060,
      "Philip": 6061,
      "judiciaire": 6062,
      "compensation": 6063,
      "Fédération": 6064,
      "fundamental": 6065,
      "Pan": 6066,
      "Rob": 6067,
      "Trésor": 6068,
      "rur": 6069,
      "sin": 6070,
      "infé": 6071,
      "concours": 6072,
      "conception": 6073,
      "advant": 6074,
      "die": 6075,
      "agissant": 6076,
      "appare": 6077,
      "viation": 6078,
      "endra": 6079,
      "préparation": 6080,
      "présentation": 6081,
      "Parag": 6082,
      "suppli": 6083,
      "locales": 6084,
      "corruption": 6085,
      "créé": 6086,
      "cadres": 6087,
      "représente": 6088,
      "territory": 6089,
      "double": 6090,
      "ATIONS": 6091,
      "bureaux": 6092,
      "consommation": 6093,
      "reasonable": 6094,
      "classification": 6095,
      "Dra": 6096,
      "zing": 6097,
      "ulti": 6098,
      "preci": 6099,
      "étape": 6100,
      "Chan": 6101,
      "goals": 6102,
      "counter": 6103,
      "choix": 6104,
      "senior": 6105,
      "approaches": 6106,
      "clari": 6107,
      "tribunaux": 6108,
      "Cu": 6109,
      "MC": 6110,
      "Pré": 6111,
      "Tous": 6112,
      "bid": 6113,
      "kil": 6114,
      "once": 6115,
      "itec": 6116,
      "andon": 6117,
      "trial": 6118,
      "dépendant": 6119,
      "format": 6120,
      "build": 6121,
      "compati": 6122,
      "passer": 6123,
      "ariats": 6124,
      "itement": 6125,
      "Deputy": 6126,
      "crire": 6127,
      "publications": 6128,
      "INC": 6129,
      "élimin": 6130,
      "femme": 6131,
      "promoting": 6132,
      "producteurs": 6133,
      "Département": 6134,
      "regulation": 6135,
      "diversity": 6136,
      "évaluations": 6137,
      "TRANS": 6138,
      "officielles": 6139,
      "souligné": 6140,
      "investigation": 6141,
      "Asie": 6142,
      "simple": 6143,
      "catégories": 6144,
      "Pacific": 6145,
      "trafficking": 6146,
      "armament": 6147,
      "Bi": 6148,
      "But": 6149,
      "Ori": 6150,
      "VE": 6151,
      "fie": 6152,
      "gg": 6153,
      "mée": 6154,
      "sold": 6155,
      "vac": 6156,
      "çant": 6157,
      "ël": 6158,
      "revised": 6159,
      "asses": 6160,
      "cel": 6161,
      "déchets": 6162,
      "managers": 6163,
      "illic": 6164,
      "presents": 6165,
      "subsequent": 6166,
      "mener": 6167,
      "crédit": 6168,
      "ignant": 6169,
      "cussions": 6170,
      "élimination": 6171,
      "amended": 6172,
      "sociales": 6173,
      "tempér": 6174,
      "exercise": 6175,
      "mulation": 6176,
      "encourager": 6177,
      "privée": 6178,
      "recovery": 6179,
      "conséquence": 6180,
      "Banque": 6181,
      "Contract": 6182,
      "EP": 6183,
      "Please": 6184,
      "RES": 6185,
      "Santé": 6186,
      "Vis": 6187,
      "ae": 6188,
      "bâ": 6189,
      "ez": 6190,
      "auté": 6191,
      "rable": 6192,
      "immédi": 6193,
      "disposi": 6194,
      "outcome": 6195,
      "items": 6196,
      "tify": 6197,
      "step": 6198,
      "Second": 6199,
      "Mark": 6200,
      "résultat": 6201,
      "espace": 6202,
      "sciences": 6203,
      "copy": 6204,
      "chiff": 6205,
      "Asia": 6206,
      "utile": 6207,
      "Corporation": 6208,
      "abinet": 6209,
      "Lic": 6210,
      "SS": 6211,
      "Tel": 6212,
      "aments": 6213,
      "cult": 6214,
      "pun": 6215,
      "èque": 6216,
      "ètres": 6217,
      "alk": 6218,
      "quir": 6219,
      "atta": 6220,
      "auteur": 6221,
      "illes": 6222,
      "conç": 6223,
      "contain": 6224,
      "seven": 6225,
      "lieux": 6226,
      "excep": 6227,
      "perf": 6228,
      "perspective": 6229,
      "immun": 6230,
      "minim": 6231,
      "posés": 6232,
      "Defence": 6233,
      "recettes": 6234,
      "transmission": 6235,
      "risks": 6236,
      "Access": 6237,
      "concluded": 6238,
      "closed": 6239,
      "communautaires": 6240,
      "achieved": 6241,
      "growing": 6242,
      "adaptation": 6243,
      "concentration": 6244,
      "sugg": 6245,
      "Industry": 6246,
      "Chapter": 6247,
      "acquisition": 6248,
      "legislative": 6249,
      "Allemagne": 6250,
      "69": 6251,
      "equ": 6252,
      "haz": 6253,
      "ka": 6254,
      "win": 6255,
      "ép": 6256,
      "deg": 6257,
      "undi": 6258,
      "size": 6259,
      "parta": 6260,
      "libre": 6261,
      "avo": 6262,
      "coh": 6263,
      "shown": 6264,
      "devait": 6265,
      "Serb": 6266,
      "although": 6267,
      "Adoption": 6268,
      "causes": 6269,
      "industries": 6270,
      "longer": 6271,
      "setting": 6272,
      "réaliser": 6273,
      "improving": 6274,
      "augmenté": 6275,
      "challenge": 6276,
      "peuples": 6277,
      "Langu": 6278,
      "interprétation": 6279,
      "connexes": 6280,
      "Ci": 6281,
      "DÉ": 6282,
      "Eff": 6283,
      "Ret": 6284,
      "Tex": 6285,
      "fri": 6286,
      "housing": 6287,
      "sla": 6288,
      "ènes": 6289,
      "demo": 6290,
      "ouvé": 6291,
      "price": 6292,
      "cellu": 6293,
      "ford": 6294,
      "mbers": 6295,
      "Commiss": 6296,
      "disabilities": 6297,
      "venu": 6298,
      "grounds": 6299,
      "Deux": 6300,
      "submission": 6301,
      "maintenance": 6302,
      "Status": 6303,
      "régionale": 6304,
      "permettra": 6305,
      "1985": 6306,
      "montre": 6307,
      "spécifiques": 6308,
      "institutional": 6309,
      "infrastructures": 6310,
      "Justification": 6311,
      "enregistr": 6312,
      "honor": 6313,
      "observer": 6314,
      "Chairman": 6315,
      "Labour": 6316,
      "territorial": 6317,
      "secretariat": 6318,
      "échantill": 6319,
      "rémunération": 6320,
      "Cur": 6321,
      "Our": 6322,
      "RA": 6323,
      "ko": 6324,
      "reti": 6325,
      "atu": 6326,
      "lesquelles": 6327,
      "aces": 6328,
      "rième": 6329,
      "importe": 6330,
      "preparation": 6331,
      "Enfin": 6332,
      "week": 6333,
      "marque": 6334,
      "works": 6335,
      "courts": 6336,
      "approbation": 6337,
      "supports": 6338,
      "requér": 6339,
      "whole": 6340,
      "tente": 6341,
      "themselves": 6342,
      "Island": 6343,
      "substance": 6344,
      "judicial": 6345,
      "history": 6346,
      "Premières": 6347,
      "réseaux": 6348,
      "territori": 6349,
      "Implement": 6350,
      "confiance": 6351,
      "Bay": 6352,
      "Evaluation": 6353,
      "Jour": 6354,
      "PL": 6355,
      "dès": 6356,
      "fla": 6357,
      "hum": 6358,
      "pital": 6359,
      "satell": 6360,
      "remerci": 6361,
      "always": 6362,
      "prices": 6363,
      "urb": 6364,
      "ceed": 6365,
      "lives": 6366,
      "peine": 6367,
      "porting": 6368,
      "notice": 6369,
      "ired": 6370,
      "Annu": 6371,
      "Advisory": 6372,
      "consulter": 6373,
      "directrices": 6374,
      "effectuer": 6375,
      "désarmement": 6376,
      "schedu": 6377,
      "Germany": 6378,
      "alternative": 6379,
      "correction": 6380,
      "custom": 6381,
      "Hon": 6382,
      "Key": 6383,
      "Nun": 6384,
      "Saf": 6385,
      "ensuite": 6386,
      "rea": 6387,
      "reconnu": 6388,
      "forest": 6389,
      "param": 6390,
      "room": 6391,
      "minal": 6392,
      "endant": 6393,
      "mption": 6394,
      "stric": 6395,
      "consid": 6396,
      "confidenti": 6397,
      "payment": 6398,
      "salle": 6399,
      "professionnels": 6400,
      "recommandation": 6401,
      "observation": 6402,
      "grands": 6403,
      "Institut": 6404,
      "listed": 6405,
      "Members": 6406,
      "sanctions": 6407,
      "Israel": 6408,
      "dossiers": 6409,
      "Furthermore": 6410,
      "nomination": 6411,
      "meilleure": 6412,
      "dimension": 6413,
      "MAN": 6414,
      "OT": 6415,
      "OU": 6416,
      "lâ": 6417,
      "mol": 6418,
      "ya": 6419,
      "lien": 6420,
      "rest": 6421,
      "porta": 6422,
      "pourquoi": 6423,
      "portent": 6424,
      "puissent": 6425,
      "Common": 6426,
      "transit": 6427,
      "China": 6428,
      "soumis": 6429,
      "speak": 6430,
      "intéri": 6431,
      "book": 6432,
      "TIC": 6433,
      "norme": 6434,
      "specified": 6435,
      "Such": 6436,
      "territoires": 6437,
      "garde": 6438,
      "refus": 6439,
      "Training": 6440,
      "After": 6441,
      "commerciales": 6442,
      "revenus": 6443,
      "vulgation": 6444,
      "quarters": 6445,
      "municipal": 6446,
      "temporary": 6447,
      "component": 6448,
      "concurrence": 6449,
      "freedom": 6450,
      "rembour": 6451,
      "rempl": 6452,
      "réfugiés": 6453,
      "Amb": 6454,
      "Elles": 6455,
      "HIV": 6456,
      "PM": 6457,
      "elimin": 6458,
      "mouve": 6459,
      "oil": 6460,
      "wor": 6461,
      "élections": 6462,
      "anie": 6463,
      "lectoral": 6464,
      "dus": 6465,
      "chau": 6466,
      "parc": 6467,
      "rail": 6468,
      "resol": 6469,
      "agency": 6470,
      "imparti": 6471,
      "eco": 6472,
      "Commer": 6473,
      "nia": 6474,
      "prévue": 6475,
      "press": 6476,
      "symb": 6477,
      "inclusion": 6478,
      "border": 6479,
      "maintenir": 6480,
      "planned": 6481,
      "appear": 6482,
      "variety": 6483,
      "registration": 6484,
      "périodi": 6485,
      "bene": 6486,
      "rador": 6487,
      "haute": 6488,
      "Labrador": 6489,
      "Children": 6490,
      "destruction": 6491,
      "Aut": 6492,
      "Dro": 6493,
      "Pen": 6494,
      "QUE": 6495,
      "Voir": 6496,
      "hô": 6497,
      "invent": 6498,
      "erie": 6499,
      "outs": 6500,
      "quand": 6501,
      "détention": 6502,
      "bey": 6503,
      "Comment": 6504,
      "entire": 6505,
      "tests": 6506,
      "undertaking": 6507,
      "générales": 6508,
      "Analy": 6509,
      "informal": 6510,
      "fédéraux": 6511,
      "professionnelle": 6512,
      "recommendation": 6513,
      "administratives": 6514,
      "acquit": 6515,
      "vulner": 6516,
      "Declaration": 6517,
      "scientific": 6518,
      "details": 6519,
      "records": 6520,
      "classe": 6521,
      "maladie": 6522,
      "globale": 6523,
      "jamais": 6524,
      "800": 6525,
      "CL": 6526,
      "EM": 6527,
      "Nation": 6528,
      "bord": 6529,
      "fur": 6530,
      "là": 6531,
      "llement": 6532,
      "map": 6533,
      "west": 6534,
      "ador": 6535,
      "logement": 6536,
      "resolutions": 6537,
      "implications": 6538,
      "stor": 6539,
      "Reference": 6540,
      "géograph": 6541,
      "Chine": 6542,
      "euros": 6543,
      "généraux": 6544,
      "continent": 6545,
      "operating": 6546,
      "gouvernance": 6547,
      "pense": 6548,
      "creation": 6549,
      "charges": 6550,
      "250": 6551,
      "analyses": 6552,
      "1989": 6553,
      "Prince": 6554,
      "reflect": 6555,
      "aliments": 6556,
      "transportation": 6557,
      "complément": 6558,
      "favour": 6559,
      "exclusive": 6560,
      "collectivité": 6561,
      "Governments": 6562,
      "debate": 6563,
      "Representative": 6564,
      "enregistrement": 6565,
      "psycho": 6566,
      "AIDS": 6567,
      "Safety": 6568,
      "Mer": 6569,
      "Rég": 6570,
      "tter": 6571,
      "vu": 6572,
      "vér": 6573,
      "dements": 6574,
      "astrop": 6575,
      "vel": 6576,
      "prop": 6577,
      "sumé": 6578,
      "lymp": 6579,
      "iency": 6580,
      "montré": 6581,
      "employé": 6582,
      "employer": 6583,
      "Also": 6584,
      "requirement": 6585,
      "indicate": 6586,
      "permettent": 6587,
      "examined": 6588,
      "purch": 6589,
      "resulting": 6590,
      "accountability": 6591,
      "augmenter": 6592,
      "Prime": 6593,
      "delegations": 6594,
      "minutes": 6595,
      "broadcas": 6596,
      "hésion": 6597,
      "words": 6598,
      "Type": 6599,
      "Philipp": 6600,
      "Fun": 6601,
      "Gé": 6602,
      "Port": 6603,
      "Tro": 6604,
      "habil": 6605,
      "ky": 6606,
      "ping": 6607,
      "senti": 6608,
      "enci": 6609,
      "leave": 6610,
      "quin": 6611,
      "semin": 6612,
      "sels": 6613,
      "duties": 6614,
      "parole": 6615,
      "expect": 6616,
      "idic": 6617,
      "Park": 6618,
      "Partie": 6619,
      "personnels": 6620,
      "tentes": 6621,
      "tiennent": 6622,
      "payments": 6623,
      "spécifique": 6624,
      "supérieur": 6625,
      "connaît": 6626,
      "intégrée": 6627,
      "dirige": 6628,
      "Directeur": 6629,
      "caractéristiques": 6630,
      "System": 6631,
      "CANADA": 6632,
      "600": 6633,
      "HO": 6634,
      "Sim": 6635,
      "UB": 6636,
      "mant": 6637,
      "mique": 6638,
      "wise": 6639,
      "”,": 6640,
      "units": 6641,
      "acted": 6642,
      "appréci": 6643,
      "avoc": 6644,
      "tically": 6645,
      "stable": 6646,
      "rapid": 6647,
      "tonnes": 6648,
      "opéra": 6649,
      "1980": 6650,
      "Most": 6651,
      "réponses": 6652,
      "partenariats": 6653,
      "From": 6654,
      "linguis": 6655,
      "maxim": 6656,
      "supervis": 6657,
      "Documents": 6658,
      "claims": 6659,
      "supporting": 6660,
      "Israël": 6661,
      "Strategic": 6662,
      "préoccupations": 6663,
      "Transportation": 6664,
      "manifest": 6665,
      "Japan": 6666,
      "announced": 6667,
      "educational": 6668,
      "Promo": 6669,
      "Cli": 6670,
      "Follow": 6671,
      "His": 6672,
      "How": 6673,
      "bly": 6674,
      "hors": 6675,
      "tary": 6676,
      "cependant": 6677,
      "conforme": 6678,
      "prosecu": 6679,
      "chec": 6680,
      "compu": 6681,
      "peoples": 6682,
      "Indon": 6683,
      "chemical": 6684,
      "logiques": 6685,
      "menées": 6686,
      "Autres": 6687,
      "ildlife": 6688,
      "gestionnaires": 6689,
      "gouvernementaux": 6690,
      "followed": 6691,
      "continuing": 6692,
      "relev": 6693,
      "News": 6694,
      "Police": 6695,
      "exclusion": 6696,
      "definition": 6697,
      "circulation": 6698,
      "strengthening": 6699,
      "maritime": 6700,
      "Georg": 6701,
      "plaintes": 6702,
      "Ca": 6703,
      "Lac": 6704,
      "bound": 6705,
      "election": 6706,
      "kind": 6707,
      "pap": 6708,
      "tt": 6709,
      "wers": 6710,
      "envoy": 6711,
      "reté": 6712,
      "deur": 6713,
      "death": 6714,
      "original": 6715,
      "unis": 6716,
      "dessous": 6717,
      "proactive": 6718,
      "parvenir": 6719,
      "hearing": 6720,
      "seraient": 6721,
      "manque": 6722,
      "fici": 6723,
      "compter": 6724,
      "gene": 6725,
      "développer": 6726,
      "Exper": 6727,
      "Réunion": 6728,
      "crits": 6729,
      "peacekeeping": 6730,
      "Perman": 6731,
      "rempla": 6732,
      "Mexico": 6733,
      "%,": 6734,
      "93": 6735,
      "Ainsi": 6736,
      "City": 6737,
      "El": 6738,
      "Fam": 6739,
      "Habit": 6740,
      "Ir": 6741,
      "SER": 6742,
      "fre": 6743,
      "ham": 6744,
      "ider": 6745,
      "wo": 6746,
      "éth": 6747,
      "entend": 6748,
      "artis": 6749,
      "loss": 6750,
      "division": 6751,
      "explain": 6752,
      "interaction": 6753,
      "soutenir": 6754,
      "automa": 6755,
      "goal": 6756,
      "carbon": 6757,
      "bois": 6758,
      "faites": 6759,
      "angla": 6760,
      "publié": 6761,
      "calend": 6762,
      "actuel": 6763,
      "applique": 6764,
      "coph": 6765,
      "copies": 6766,
      "Six": 6767,
      "allowed": 6768,
      "Joint": 6769,
      "prévus": 6770,
      "disponible": 6771,
      "écoles": 6772,
      "Nouveau": 6773,
      "mechanism": 6774,
      "consommateurs": 6775,
      "Technology": 6776,
      "chimiques": 6777,
      "71": 6778,
      "82": 6779,
      "DS": 6780,
      "Day": 6781,
      "HCR": 6782,
      "aking": 6783,
      "ples": 6784,
      "ute": 6785,
      "wit": 6786,
      "contains": 6787,
      "vey": 6788,
      "forê": 6789,
      "adic": 6790,
      "ney": 6791,
      "diag": 6792,
      "image": 6793,
      "avut": 6794,
      "opposition": 6795,
      "geograph": 6796,
      "distance": 6797,
      "Conform": 6798,
      "obtain": 6799,
      "presse": 6800,
      "stabilité": 6801,
      "produire": 6802,
      "respond": 6803,
      "centage": 6804,
      "invited": 6805,
      "principale": 6806,
      "standing": 6807,
      "links": 6808,
      "release": 6809,
      "encouraged": 6810,
      "complaints": 6811,
      "recrutement": 6812,
      "transparence": 6813,
      "flex": 6814,
      "événements": 6815,
      "Nunavut": 6816,
      "AB": 6817,
      "MI": 6818,
      "NRC": 6819,
      "Out": 6820,
      "Page": 6821,
      "UK": 6822,
      "Vi": 6823,
      "Water": 6824,
      "Year": 6825,
      "bis": 6826,
      "bac": 6827,
      "ement": 6828,
      "gro": 6829,
      "jeu": 6830,
      "nage": 6831,
      "pack": 6832,
      "ulation": 6833,
      "prud": 6834,
      "ourg": 6835,
      "ira": 6836,
      "réparti": 6837,
      "déplo": 6838,
      "appointed": 6839,
      "appreci": 6840,
      "sert": 6841,
      "ending": 6842,
      "waste": 6843,
      "trafic": 6844,
      "emplois": 6845,
      "indigenous": 6846,
      "particulière": 6847,
      "facility": 6848,
      "procéder": 6849,
      "factor": 6850,
      "registered": 6851,
      "takes": 6852,
      "leading": 6853,
      "limites": 6854,
      "intensi": 6855,
      "interventions": 6856,
      "provisional": 6857,
      "interested": 6858,
      "supérie": 6859,
      "travaill": 6860,
      "Plus": 6861,
      "vehicles": 6862,
      "demeure": 6863,
      "élèves": 6864,
      "practical": 6865,
      "beyond": 6866,
      "))": 6867,
      "CES": 6868,
      "Hy": 6869,
      "Nat": 6870,
      "dences": 6871,
      "gne": 6872,
      "gros": 6873,
      "hope": 6874,
      "més": 6875,
      "pite": 6876,
      "tÃ": 6877,
      "antee": 6878,
      "tees": 6879,
      "contient": 6880,
      "dia": 6881,
      "users": 6882,
      "appar": 6883,
      "cession": 6884,
      "makes": 6885,
      "Instru": 6886,
      "gradu": 6887,
      "dispu": 6888,
      "Consi": 6889,
      "stress": 6890,
      "sharing": 6891,
      "marketing": 6892,
      "stabil": 6893,
      "ferences": 6894,
      "tradu": 6895,
      "applicables": 6896,
      "consult": 6897,
      "milliards": 6898,
      "juridic": 6899,
      "joy": 6900,
      "appuie": 6901,
      "instruction": 6902,
      "recommandé": 6903,
      "compéti": 6904,
      "tendance": 6905,
      "scru": 6906,
      "catastrop": 6907,
      "OSCE": 6908,
      "pénale": 6909,
      "Criminal": 6910,
      "intitulé": 6911,
      "74": 6912,
      "84": 6913,
      "Aviation": 6914,
      "Bio": 6915,
      "Es": 6916,
      "Great": 6917,
      "Of": 6918,
      "WA": 6919,
      "bra": 6920,
      "cents": 6921,
      "mac": 6922,
      "naiss": 6923,
      "tard": 6924,
      "indépendant": 6925,
      "rement": 6926,
      "reconnaissance": 6927,
      "prit": 6928,
      "teen": 6929,
      "actif": 6930,
      "forte": 6931,
      "ago": 6932,
      "abuse": 6933,
      "mines": 6934,
      "ously": 6935,
      "Contribu": 6936,
      "obtenu": 6937,
      "vos": 6938,
      "phen": 6939,
      "pressure": 6940,
      "titudes": 6941,
      "présentés": 6942,
      "consiste": 6943,
      "domin": 6944,
      "struct": 6945,
      "invité": 6946,
      "Order": 6947,
      "Staff": 6948,
      "acknow": 6949,
      "Dévelop": 6950,
      "reviewed": 6951,
      "difficile": 6952,
      "Perform": 6953,
      "étudiants": 6954,
      "Premier": 6955,
      "Objec": 6956,
      "uniquement": 6957,
      "supplémentaire": 6958,
      "extension": 6959,
      "emergency": 6960,
      "arrêt": 6961,
      "nutrition": 6962,
      "fournisseurs": 6963,
      "intermédiaire": 6964,
      "conciliation": 6965,
      "Civil": 6966,
      "Eas": 6967,
      "PER": 6968,
      "Ris": 6969,
      "Rés": 6970,
      "SB": 6971,
      "dens": 6972,
      "ived": 6973,
      "mach": 6974,
      "pti": 6975,
      "scre": 6976,
      "vet": 6977,
      "intes": 6978,
      "assa": 6979,
      "cemment": 6980,
      "secure": 6981,
      "proven": 6982,
      "lies": 6983,
      "extend": 6984,
      "notification": 6985,
      "motifs": 6986,
      "Intro": 6987,
      "Legal": 6988,
      "accrue": 6989,
      "Depart": 6990,
      "chemin": 6991,
      "numbers": 6992,
      "Paris": 6993,
      "autant": 6994,
      "ductions": 6995,
      "réalisés": 6996,
      "petites": 6997,
      "agricole": 6998,
      "involvement": 6999,
      "exécutif": 7000,
      "little": 7001,
      "targe": 7002,
      "departmental": 7003,
      "observed": 7004,
      "Bell": 7005,
      "dependent": 7006,
      "________________________________": 7007,
      "Statistics": 7008,
      "répercussions": 7009,
      "pronon": 7010,
      "Permanent": 7011,
      "Azer": 7012,
      "Ges": 7013,
      "Met": 7014,
      "Pur": 7015,
      "XX": 7016,
      "aér": 7017,
      "aign": 7018,
      "brought": 7019,
      "yle": 7020,
      "èles": 7021,
      "tia": 7022,
      "istics": 7023,
      "itary": 7024,
      "lot": 7025,
      "viennent": 7026,
      "mping": 7027,
      "jected": 7028,
      "donnée": 7029,
      "Auc": 7030,
      "Gene": 7031,
      "raised": 7032,
      "identité": 7033,
      "fund": 7034,
      "Issu": 7035,
      "circon": 7036,
      "figurant": 7037,
      "pattern": 7038,
      "minorités": 7039,
      "ethnic": 7040,
      "commentaires": 7041,
      "pertinentes": 7042,
      "Lorsque": 7043,
      "advance": 7044,
      "----------------": 7045,
      "Limited": 7046,
      "réserves": 7047,
      "cultures": 7048,
      "considère": 7049,
      "Etat": 7050,
      "MR": 7051,
      "Neu": 7052,
      "Ress": 7053,
      "nav": 7054,
      "oks": 7055,
      "pic": 7056,
      "écar": 7057,
      "defence": 7058,
      "democratic": 7059,
      "aspect": 7060,
      "town": 7061,
      "comply": 7062,
      "révision": 7063,
      "explic": 7064,
      "server": 7065,
      "finance": 7066,
      "Leban": 7067,
      "Energy": 7068,
      "systé": 7069,
      "produce": 7070,
      "ONG": 7071,
      "blioth": 7072,
      "usement": 7073,
      "indiquer": 7074,
      "crédits": 7075,
      "fuel": 7076,
      "particuliers": 7077,
      "improvement": 7078,
      "jouer": 7079,
      "Therefore": 7080,
      "potentiel": 7081,
      "quatrième": 7082,
      "approuvé": 7083,
      "offered": 7084,
      "SION": 7085,
      "complainant": 7086,
      "Communication": 7087,
      "Royal": 7088,
      "spectives": 7089,
      "paiement": 7090,
      "tâches": 7091,
      "déployés": 7092,
      "oiseaux": 7093,
      "Philippines": 7094,
      "Conformément": 7095,
      "circonstances": 7096,
      "Cet": 7097,
      "DN": 7098,
      "FIN": 7099,
      "SR": 7100,
      "Wel": 7101,
      "fill": 7102,
      "gla": 7103,
      "hard": 7104,
      "spon": 7105,
      "ètes": 7106,
      "électr": 7107,
      "tified": 7108,
      "informe": 7109,
      "degré": 7110,
      "unités": 7111,
      "sept": 7112,
      "extre": 7113,
      "noté": 7114,
      "sole": 7115,
      "puisse": 7116,
      "alls": 7117,
      "filed": 7118,
      "programming": 7119,
      "approvision": 7120,
      "trative": 7121,
      "Arc": 7122,
      "Auto": 7123,
      "premiers": 7124,
      "spéciales": 7125,
      "Publications": 7126,
      "Society": 7127,
      "beginning": 7128,
      "separate": 7129,
      "86": 7130,
      "Museum": 7131,
      "Sch": 7132,
      "SUR": 7133,
      "bin": 7134,
      "uel": 7135,
      "éni": 7136,
      "ares": 7137,
      "tries": 7138,
      "liqui": 7139,
      "commod": 7140,
      "porteurs": 7141,
      "ténu": 7142,
      "avez": 7143,
      "Relations": 7144,
      "Représentant": 7145,
      "incen": 7146,
      "places": 7147,
      "facteur": 7148,
      "officer": 7149,
      "Communauté": 7150,
      "ORT": 7151,
      "hypo": 7152,
      "differences": 7153,
      "involving": 7154,
      "atteint": 7155,
      "posées": 7156,
      "turn": 7157,
      "animaux": 7158,
      "believe": 7159,
      "accidents": 7160,
      "granted": 7161,
      "entrepreneurs": 7162,
      "School": 7163,
      "MB": 7164,
      "ML": 7165,
      "lus": 7166,
      "mir": 7167,
      "sound": 7168,
      "vues": 7169,
      "ÉS": 7170,
      "detention": 7171,
      "ouest": 7172,
      "attr": 7173,
      "methodolog": 7174,
      "adjust": 7175,
      "tail": 7176,
      "déliv": 7177,
      "versi": 7178,
      "perspectives": 7179,
      "absor": 7180,
      "sures": 7181,
      "Inte": 7182,
      "gratu": 7183,
      "shared": 7184,
      "préhen": 7185,
      "accorder": 7186,
      "foli": 7187,
      "stability": 7188,
      "penal": 7189,
      "concernés": 7190,
      "sibilité": 7191,
      "commerciaux": 7192,
      "complet": 7193,
      "puisque": 7194,
      "actuelles": 7195,
      "discussed": 7196,
      "possibility": 7197,
      "Terre": 7198,
      "ethni": 7199,
      "Heritage": 7200,
      "Université": 7201,
      "partnerships": 7202,
      "fondamentaux": 7203,
      "interpretation": 7204,
      "Calgary": 7205,
      "eligible": 7206,
      "Ressources": 7207,
      "Plu": 7208,
      "Pay": 7209,
      "Rad": 7210,
      "clin": 7211,
      "dle": 7212,
      "dates": 7213,
      "fense": 7214,
      "gress": 7215,
      "hi": 7216,
      "iting": 7217,
      "ibility": 7218,
      "atténu": 7219,
      "assure": 7220,
      "too": 7221,
      "selected": 7222,
      "chô": 7223,
      "parle": 7224,
      "negative": 7225,
      "récemment": 7226,
      "délais": 7227,
      "exposition": 7228,
      "posée": 7229,
      "préser": 7230,
      "rise": 7231,
      "travaille": 7232,
      "employeur": 7233,
      "devons": 7234,
      "pendix": 7235,
      "contribué": 7236,
      "ordinaire": 7237,
      "provinciaux": 7238,
      "bank": 7239,
      "établis": 7240,
      "aware": 7241,
      "represented": 7242,
      "leaders": 7243,
      "IDA": 7244,
      "Stratég": 7245,
      "designated": 7246,
      "shows": 7247,
      "volonté": 7248,
      "frontières": 7249,
      "aqua": 7250,
      "perfection": 7251,
      "Implementation": 7252,
      "Performance": 7253,
      "83": 7254,
      "963": 7255,
      "Back": 7256,
      "Cabinet": 7257,
      "Dom": 7258,
      "Hal": 7259,
      "JO": 7260,
      "Mic": 7261,
      "Mari": 7262,
      "Mais": 7263,
      "Source": 7264,
      "aéro": 7265,
      "bs": 7266,
      "task": 7267,
      "invo": 7268,
      "ery": 7269,
      "allocation": 7270,
      "itÃ": 7271,
      "arts": 7272,
      "vec": 7273,
      "sie": 7274,
      "cht": 7275,
      "never": 7276,
      "pore": 7277,
      "rédi": 7278,
      "roy": 7279,
      "nipe": 7280,
      "why": 7281,
      "vois": 7282,
      "prévenir": 7283,
      "accus": 7284,
      "engine": 7285,
      "Cooperation": 7286,
      "textes": 7287,
      "condam": 7288,
      "combus": 7289,
      "paragraphes": 7290,
      "prenant": 7291,
      "VIH": 7292,
      "Administrative": 7293,
      "maladies": 7294,
      "guarantee": 7295,
      "Winnipe": 7296,
      "expansion": 7297,
      "Braz": 7298,
      "Effec": 7299,
      "81": 7300,
      "Data": 7301,
      "FIC": 7302,
      "Pop": 7303,
      "Pays": 7304,
      "Vic": 7305,
      "city": 7306,
      "fal": 7307,
      "gri": 7308,
      "gérer": 7309,
      "tas": 7310,
      "tors": 7311,
      "iring": 7312,
      "apparten": 7313,
      "abandon": 7314,
      "cused": 7315,
      "Contin": 7316,
      "séances": 7317,
      "prepar": 7318,
      "développ": 7319,
      "Nova": 7320,
      "ength": 7321,
      "retur": 7322,
      "résolutions": 7323,
      "commerciale": 7324,
      "Agenda": 7325,
      "occupé": 7326,
      "please": 7327,
      "considéré": 7328,
      "affectation": 7329,
      "secondary": 7330,
      "approuv": 7331,
      "limite": 7332,
      "amendment": 7333,
      "régulièrement": 7334,
      "dépôt": 7335,
      "expenditure": 7336,
      "findings": 7337,
      "Habitat": 7338,
      "Introduction": 7339,
      "AI": 7340,
      "Cy": 7341,
      "CIS": 7342,
      "Mill": 7343,
      "Rules": 7344,
      "cam": 7345,
      "frequ": 7346,
      "ibilité": 7347,
      "mau": 7348,
      "mass": 7349,
      "rus": 7350,
      "spr": 7351,
      "totale": 7352,
      "partage": 7353,
      "taille": 7354,
      "movement": 7355,
      "commiss": 7356,
      "grave": 7357,
      "useful": 7358,
      "chargée": 7359,
      "individus": 7360,
      "modifier": 7361,
      "usinesses": 7362,
      "multilaté": 7363,
      "largement": 7364,
      "Record": 7365,
      "migrant": 7366,
      "énergé": 7367,
      "competitive": 7368,
      "Control": 7369,
      "simpli": 7370,
      "exportation": 7371,
      "audio": 7372,
      "syndic": 7373,
      "corporate": 7374,
      "components": 7375,
      "disciplin": 7376,
      "Portu": 7377,
      "launched": 7378,
      "Annual": 7379,
      "Trois": 7380,
      "Développement": 7381,
      "Stratégie": 7382,
      "Winnipeg": 7383,
      "1A": 7384,
      "Cre": 7385,
      "Four": 7386,
      "Ken": 7387,
      "Lux": 7388,
      "Mich": 7389,
      "NP": 7390,
      "Stre": 7391,
      "atifs": 7392,
      "ev": 7393,
      "element": 7394,
      "gence": 7395,
      "esprit": 7396,
      "ison": 7397,
      "ising": 7398,
      "asy": 7399,
      "seen": 7400,
      "sif": 7401,
      "duty": 7402,
      "rivi": 7403,
      "portées": 7404,
      "imprim": 7405,
      "graves": 7406,
      "cut": 7407,
      "accru": 7408,
      "regards": 7409,
      "transactions": 7410,
      "collè": 7411,
      "requis": 7412,
      "locale": 7413,
      "timely": 7414,
      "adoptée": 7415,
      "caused": 7416,
      "utilisant": 7417,
      "recevoir": 7418,
      "authorized": 7419,
      "essentiellement": 7420,
      "difficul": 7421,
      "cracy": 7422,
      "précise": 7423,
      "statistics": 7424,
      "destinés": 7425,
      "architec": 7426,
      "Partn": 7427,
      "longue": 7428,
      "éliminer": 7429,
      "Gestion": 7430,
      "Brazil": 7431,
      "89": 7432,
      "Found": 7433,
      "Gi": 7434,
      "Mun": 7435,
      "Vol": 7436,
      "imale": 7437,
      "rc": 7438,
      "ring": 7439,
      "zes": 7440,
      "école": 7441,
      "élarg": 7442,
      "ino": 7443,
      "inqui": 7444,
      "ently": 7445,
      "entry": 7446,
      "lables": 7447,
      "ica": 7448,
      "asing": 7449,
      "convic": 7450,
      "adress": 7451,
      "comprom": 7452,
      "civ": 7453,
      "réd": 7454,
      "rétabl": 7455,
      "interview": 7456,
      "bler": 7457,
      "doing": 7458,
      "pétro": 7459,
      "ished": 7460,
      "tiss": 7461,
      "counsel": 7462,
      "itié": 7463,
      "menace": 7464,
      "devra": 7465,
      "résil": 7466,
      "COSE": 7467,
      "norm": 7468,
      "highest": 7469,
      "utilisées": 7470,
      "informer": 7471,
      "bande": 7472,
      "reflec": 7473,
      "sexe": 7474,
      "minority": 7475,
      "liminary": 7476,
      "crisis": 7477,
      "networks": 7478,
      "Politique": 7479,
      "sûreté": 7480,
      "toxic": 7481,
      "siècle": 7482,
      "degree": 7483,
      "120": 7484,
      "Aux": 7485,
      "GH": 7486,
      "Many": 7487,
      "PNU": 7488,
      "businesses": 7489,
      "dant": 7490,
      "ever": 7491,
      "fro": 7492,
      "length": 7493,
      "mits": 7494,
      "vain": 7495,
      "wood": 7496,
      "éré": 7497,
      "ende": 7498,
      "enjoy": 7499,
      "insurance": 7500,
      "reducing": 7501,
      "itant": 7502,
      "prÃ": 7503,
      "chair": 7504,
      "liers": 7505,
      "suis": 7506,
      "hear": 7507,
      "Infr": 7508,
      "marche": 7509,
      "Deleg": 7510,
      "foot": 7511,
      "responses": 7512,
      "gosla": 7513,
      "ESC": 7514,
      "conférences": 7515,
      "participating": 7516,
      "essai": 7517,
      "UNDP": 7518,
      "Communities": 7519,
      "petits": 7520,
      "Appro": 7521,
      "accepted": 7522,
      "Disclosure": 7523,
      "embourg": 7524,
      "annivers": 7525,
      "prêts": 7526,
      "Certains": 7527,
      "véhicule": 7528,
      "reached": 7529,
      "Société": 7530,
      "appointment": 7531,
      "thèse": 7532,
      "assessed": 7533,
      "scheduled": 7534,
      "Luxembourg": 7535,
      "civils": 7536,
      "BS": 7537,
      "Branch": 7538,
      "Camp": 7539,
      "DO": 7540,
      "Olymp": 7541,
      "gam": 7542,
      "kin": 7543,
      "ancy": 7544,
      "indispens": 7545,
      "istic": 7546,
      "attemp": 7547,
      "aud": 7548,
      "procès": 7549,
      "parliament": 7550,
      "compor": 7551,
      "réussi": 7552,
      "dérou": 7553,
      "perç": 7554,
      "stations": 7555,
      "start": 7556,
      "internes": 7557,
      "inscrit": 7558,
      "Conclu": 7559,
      "outes": 7560,
      "fiées": 7561,
      "posent": 7562,
      "focused": 7563,
      "Parks": 7564,
      "maintained": 7565,
      "adopt": 7566,
      "credi": 7567,
      "funded": 7568,
      "environnementales": 7569,
      "constituer": 7570,
      "productive": 7571,
      "traitements": 7572,
      "discuss": 7573,
      "équipement": 7574,
      "determination": 7575,
      "intégrer": 7576,
      "cosse": 7577,
      "stocks": 7578,
      "feuille": 7579,
      "crise": 7580,
      "Pacifique": 7581,
      "Operations": 7582,
      "Moreover": 7583,
      "Swed": 7584,
      "connection": 7585,
      "categories": 7586,
      "commissions": 7587,
      "Facil": 7588,
      "behavi": 7589,
      "mauv": 7590,
      "Afin": 7591,
      "Avant": 7592,
      "Cad": 7593,
      "Den": 7594,
      "House": 7595,
      "Lu": 7596,
      "Pra": 7597,
      "Tim": 7598,
      "èlement": 7599,
      "éten": 7600,
      "échanges": 7601,
      "tidi": 7602,
      "retraite": 7603,
      "theless": 7604,
      "lating": 7605,
      "atlan": 7606,
      "tool": 7607,
      "foresti": 7608,
      "liaison": 7609,
      "rig": 7610,
      "Compte": 7611,
      "visée": 7612,
      "voire": 7613,
      "pread": 7614,
      "predic": 7615,
      "money": 7616,
      "partner": 7617,
      "ouverte": 7618,
      "transformation": 7619,
      "importations": 7620,
      "mainly": 7621,
      "facul": 7622,
      "Accoun": 7623,
      "Examen": 7624,
      "clean": 7625,
      "linked": 7626,
      "Dépenses": 7627,
      "akistan": 7628,
      "Where": 7629,
      "mutu": 7630,
      "territories": 7631,
      "heritage": 7632,
      "plein": 7633,
      "essentiels": 7634,
      "Appendix": 7635,
      "accounts": 7636,
      "habitats": 7637,
      "conduite": 7638,
      "MENTS": 7639,
      "target": 7640,
      "Sudan": 7641,
      "élaboré": 7642,
      "campagne": 7643,
      "pilot": 7644,
      "médicaments": 7645,
      "Atlantique": 7646,
      "Building": 7647,
      "patients": 7648,
      "limitée": 7649,
      "exploration": 7650,
      "tandis": 7651,
      "procurement": 7652,
      "Fisheries": 7653,
      "raisonnable": 7654,
      "waters": 7655,
      "Panel": 7656,
      "Cuba": 7657,
      "Eastern": 7658,
      "Mat": 7659,
      "Up": 7660,
      "ières": 7661,
      "sil": 7662,
      "spo": 7663,
      "vital": 7664,
      "éduc": 7665,
      "estiv": 7666,
      "istique": 7667,
      "uré": 7668,
      "contenant": 7669,
      "acteurs": 7670,
      "actifs": 7671,
      "adjoint": 7672,
      "pourcentage": 7673,
      "elds": 7674,
      "immigrants": 7675,
      "unemploy": 7676,
      "soon": 7677,
      "igne": 7678,
      "Democratic": 7679,
      "feed": 7680,
      "ligence": 7681,
      "ower": 7682,
      "recommande": 7683,
      "questionnaire": 7684,
      "highly": 7685,
      "spir": 7686,
      "producers": 7687,
      "Post": 7688,
      "annuelle": 7689,
      "différences": 7690,
      "APEC": 7691,
      "Team": 7692,
      "humaine": 7693,
      "summary": 7694,
      "addressing": 7695,
      "arriv": 7696,
      "conventions": 7697,
      "audience": 7698,
      "recently": 7699,
      "extended": 7700,
      "peuple": 7701,
      "nucléaire": 7702,
      "website": 7703,
      "…………": 7704,
      "Summary": 7705,
      "Gaza": 7706,
      "aérone": 7707,
      "Autochtones": 7708,
      "Cultural": 7709,
      "RS": 7710,
      "Sche": 7711,
      "TV": 7712,
      "ama": 7713,
      "bloc": 7714,
      "hoc": 7715,
      "mér": 7716,
      "oking": 7717,
      "pet": 7718,
      "sof": 7719,
      "sport": 7720,
      "uer": 7721,
      "ouvre": 7722,
      "lamp": 7723,
      "andum": 7724,
      "trends": 7725,
      "parfois": 7726,
      "answer": 7727,
      "départ": 7728,
      "soix": 7729,
      "quie": 7730,
      "commend": 7731,
      "interro": 7732,
      "fich": 7733,
      "cup": 7734,
      "Lear": 7735,
      "jection": 7736,
      "curric": 7737,
      "lancé": 7738,
      "participant": 7739,
      "gouvernementale": 7740,
      "rices": 7741,
      "vingt": 7742,
      "morandum": 7743,
      "associés": 7744,
      "affect": 7745,
      "paragraphs": 7746,
      "auront": 7747,
      "vérifier": 7748,
      "amounts": 7749,
      "scientifique": 7750,
      "AUT": 7751,
      "iii": 7752,
      "suffisamment": 7753,
      "Chairperson": 7754,
      "religion": 7755,
      "Youth": 7756,
      "élevés": 7757,
      "trouvent": 7758,
      "flux": 7759,
      "Mexique": 7760,
      "parlementaire": 7761,
      "physique": 7762,
      "adultes": 7763,
      "préalable": 7764,
      "bâti": 7765,
      "avoid": 7766,
      "périodique": 7767,
      "approvisionnement": 7768,
      "79": 7769,
      "Avis": 7770,
      "Ear": 7771,
      "Hel": 7772,
      "Kore": 7773,
      "List": 7774,
      "OL": 7775,
      "Pacte": 7776,
      "Rich": 7777,
      "Son": 7778,
      "Top": 7779,
      "blement": 7780,
      "gag": 7781,
      "ied": 7782,
      "spor": 7783,
      "left": 7784,
      "urée": 7785,
      "ataire": 7786,
      "ung": 7787,
      "conver": 7788,
      "conting": 7789,
      "consum": 7790,
      "search": 7791,
      "comporte": 7792,
      "comprennent": 7793,
      "cident": 7794,
      "dig": 7795,
      "dési": 7796,
      "exhib": 7797,
      "ieuses": 7798,
      "strain": 7799,
      "cipient": 7800,
      "earlier": 7801,
      "signé": 7802,
      "confid": 7803,
      "examination": 7804,
      "processing": 7805,
      "estimé": 7806,
      "representation": 7807,
      "Newfound": 7808,
      "culturelles": 7809,
      "crite": 7810,
      "réduit": 7811,
      "innovative": 7812,
      "investments": 7813,
      "souligne": 7814,
      "européennes": 7815,
      "learn": 7816,
      "historique": 7817,
      "closely": 7818,
      "delivered": 7819,
      "quotidi": 7820,
      "expenditures": 7821,
      "pouvait": 7822,
      "patrimoine": 7823,
      "échéant": 7824,
      "settlement": 7825,
      "cueillir": 7826,
      "usually": 7827,
      "température": 7828,
      "prudence": 7829,
      "Geneva": 7830,
      "Newfoundland": 7831,
      "CTION": 7832,
      "Mes": 7833,
      "Pau": 7834,
      "VIC": 7835,
      "Équi": 7836,
      "essais": 7837,
      "repe": 7838,
      "reconn": 7839,
      "deca": 7840,
      "almost": 7841,
      "sida": 7842,
      "adéqu": 7843,
      "race": 7844,
      "cide": 7845,
      "détenus": 7846,
      "execu": 7847,
      "approfon": 7848,
      "lying": 7849,
      "treated": 7850,
      "manage": 7851,
      "therlands": 7852,
      "phé": 7853,
      "Chris": 7854,
      "chances": 7855,
      "alestine": 7856,
      "membership": 7857,
      "Any": 7858,
      "adoptées": 7859,
      "traiter": 7860,
      "jeux": 7861,
      "Défense": 7862,
      "collected": 7863,
      "instructions": 7864,
      "infractions": 7865,
      "CRTC": 7866,
      "doute": 7867,
      "élector": 7868,
      "Planned": 7869,
      "panel": 7870,
      "medium": 7871,
      "passage": 7872,
      "ginal": 7873,
      "supérieurs": 7874,
      "classes": 7875,
      "Netherlands": 7876,
      "extensive": 7877,
      "transparency": 7878,
      "qualified": 7879,
      "électroniques": 7880,
      "citizen": 7881,
      "increasingly": 7882,
      "inspections": 7883,
      "crucial": 7884,
      "suggested": 7885,
      "vaste": 7886,
      "prolif": 7887,
      "Questions": 7888,
      "africaine": 7889,
      "géographique": 7890,
      "scrutin": 7891,
      "chômage": 7892,
      "Case": 7893,
      "Each": 7894,
      "Fax": 7895,
      "baisse": 7896,
      "dil": 7897,
      "éan": 7898,
      "ought": 7899,
      "itu": 7900,
      "auche": 7901,
      "adver": 7902,
      "resta": 7903,
      "riting": 7904,
      "images": 7905,
      "avanc": 7906,
      "ults": 7907,
      "endor": 7908,
      "amén": 7909,
      "iement": 7910,
      "aleur": 7911,
      "lum": 7912,
      "disarmament": 7913,
      "médec": 7914,
      "Produc": 7915,
      "numer": 7916,
      "présentées": 7917,
      "soutenu": 7918,
      "soumettre": 7919,
      "affich": 7920,
      "Articles": 7921,
      "welcome": 7922,
      "Results": 7923,
      "représentent": 7924,
      "informé": 7925,
      "chercheurs": 7926,
      "instances": 7927,
      "derniers": 7928,
      "Monitor": 7929,
      "détermination": 7930,
      "clus": 7931,
      "unders": 7932,
      "affirme": 7933,
      "décide": 7934,
      "supervision": 7935,
      "efficacement": 7936,
      "sentence": 7937,
      "method": 7938,
      "envisager": 7939,
      "enzy": 7940,
      "manifes": 7941,
      "Spain": 7942,
      "fabrication": 7943,
      "Sustain": 7944,
      "Family": 7945,
      "Natural": 7946,
      "Cop": 7947,
      "Jud": 7948,
      "Ky": 7949,
      "NI": 7950,
      "Pakistan": 7951,
      "cting": 7952,
      "fare": 7953,
      "iv": 7954,
      "ozone": 7955,
      "rect": 7956,
      "depos": 7957,
      "quit": 7958,
      "conde": 7959,
      "dues": 7960,
      "dumping": 7961,
      "liam": 7962,
      "cides": 7963,
      "oph": 7964,
      "inscription": 7965,
      "discu": 7966,
      "certification": 7967,
      "érance": 7968,
      "entretien": 7969,
      "Unit": 7970,
      "pénal": 7971,
      "feration": 7972,
      "mettant": 7973,
      "tisation": 7974,
      "truct": 7975,
      "canada": 7976,
      "COP": 7977,
      "règle": 7978,
      "appropriées": 7979,
      "appuy": 7980,
      "away": 7981,
      "resulted": 7982,
      "Divulgation": 7983,
      "culturelle": 7984,
      "définir": 7985,
      "bilaté": 7986,
      "spéciaux": 7987,
      "consequences": 7988,
      "qualifications": 7989,
      "commencé": 7990,
      "Chaque": 7991,
      "prochaine": 7992,
      "birth": 7993,
      "Invest": 7994,
      "horizont": 7995,
      "immédiate": 7996,
      "Foundation": 7997,
      "Et": 7998,
      "FM": 7999,
      "Hol": 8000,
      "Même": 8001,
      "Rail": 8002,
      "amental": 8003,
      "drait": 8004,
      "pin": 8005,
      "pous": 8006,
      "pér": 8007,
      "sales": 8008,
      "want": 8009,
      "enary": 8010,
      "def": 8011,
      "concre": 8012,
      "liée": 8013,
      "Canadiennes": 8014,
      "prima": 8015,
      "marks": 8016,
      "worked": 8017,
      "mière": 8018,
      "otherwise": 8019,
      "Not": 8020,
      "dsman": 8021,
      "locations": 8022,
      "Meas": 8023,
      "sibility": 8024,
      "identity": 8025,
      "efficiency": 8026,
      "représentation": 8027,
      "highligh": 8028,
      "permettr": 8029,
      "fournis": 8030,
      "appropriée": 8031,
      "pouvant": 8032,
      "infec": 8033,
      "considération": 8034,
      "relatively": 8035,
      "sujets": 8036,
      "monton": 8037,
      "specifically": 8038,
      "astructure": 8039,
      "permanente": 8040,
      "occasions": 8041,
      "saison": 8042,
      "recognition": 8043,
      "étudier": 8044,
      "quarter": 8045,
      "Media": 8046,
      "chacune": 8047,
      "Edmonton": 8048,
      "carrying": 8049,
      "montrer": 8050,
      "félicite": 8051,
      "familiale": 8052,
      "competent": 8053,
      "budgétaires": 8054,
      "relève": 8055,
      "season": 8056,
      "Croati": 8057,
      "PNUD": 8058,
      "prolifération": 8059,
      "($": 8060,
      "Bon": 8061,
      "Bill": 8062,
      "EE": 8063,
      "NL": 8064,
      "OH": 8065,
      "Palestine": 8066,
      "Session": 8067,
      "Task": 8068,
      "elections": 8069,
      "gique": 8070,
      "lés": 8071,
      "nette": 8072,
      "vra": 8073,
      "inti": 8074,
      "thème": 8075,
      "itment": 8076,
      "trouv": 8077,
      "comed": 8078,
      "pléni": 8079,
      "moitié": 8080,
      "Inuit": 8081,
      "disting": 8082,
      "illustr": 8083,
      "visible": 8084,
      "preven": 8085,
      "accur": 8086,
      "Entre": 8087,
      "regime": 8088,
      "Parcs": 8089,
      "transmit": 8090,
      "ishment": 8091,
      "intégré": 8092,
      "bases": 8093,
      "ANT": 8094,
      "Addition": 8095,
      "considerable": 8096,
      "utilisée": 8097,
      "actuels": 8098,
      "Modi": 8099,
      "exercer": 8100,
      "collecte": 8101,
      "mala": 8102,
      "résidence": 8103,
      "Finally": 8104,
      "primarily": 8105,
      "hood": 8106,
      "activement": 8107,
      "significative": 8108,
      "complète": 8109,
      "ology": 8110,
      "Priv": 8111,
      "India": 8112,
      "affirmé": 8113,
      "avid": 8114,
      "Impro": 8115,
      "remaining": 8116,
      "remained": 8117,
      "faibles": 8118,
      "religious": 8119,
      "NGOs": 8120,
      "Japon": 8121,
      "meaning": 8122,
      "voluntary": 8123,
      "temperature": 8124,
      "satellite": 8125,
      "CM": 8126,
      "CIC": 8127,
      "Two": 8128,
      "Ur": 8129,
      "bran": 8130,
      "cles": 8131,
      "var": 8132,
      "reconnaît": 8133,
      "itations": 8134,
      "atrice": 8135,
      "dépla": 8136,
      "dégrad": 8137,
      "rien": 8138,
      "abor": 8139,
      "imports": 8140,
      "soil": 8141,
      "commence": 8142,
      "interdiction": 8143,
      "district": 8144,
      "incap": 8145,
      "presid": 8146,
      "recy": 8147,
      "Through": 8148,
      "Parmi": 8149,
      "subventions": 8150,
      "aily": 8151,
      "octro": 8152,
      "genre": 8153,
      "century": 8154,
      "2011": 8155,
      "capable": 8156,
      "ify": 8157,
      "utilisateurs": 8158,
      "chaî": 8159,
      "considérée": 8160,
      "tendances": 8161,
      "modalités": 8162,
      "ordonnance": 8163,
      "embar": 8164,
      "effectué": 8165,
      "brid": 8166,
      "pauvres": 8167,
      "démocratie": 8168,
      "Lorsqu": 8169,
      "explique": 8170,
      "meilleures": 8171,
      "percentage": 8172,
      "Science": 8173,
      "illénaire": 8174,
      "diminution": 8175,
      "Scotia": 8176,
      "semaine": 8177,
      "macro": 8178,
      "Plusieurs": 8179,
      "Portugal": 8180,
      "Cust": 8181,
      "Esti": 8182,
      "Gra": 8183,
      "NS": 8184,
      "PAC": 8185,
      "Pho": 8186,
      "Sol": 8187,
      "Salle": 8188,
      "Use": 8189,
      "fit": 8190,
      "gir": 8191,
      "greg": 8192,
      "idées": 8193,
      "ennium": 8194,
      "ratification": 8195,
      "agé": 8196,
      "immobil": 8197,
      "aval": 8198,
      "lue": 8199,
      "obtenus": 8200,
      "visés": 8201,
      "entités": 8202,
      "Thom": 8203,
      "fera": 8204,
      "gov": 8205,
      "devront": 8206,
      "news": 8207,
      "relever": 8208,
      "datab": 8209,
      "équipes": 8210,
      "professionnel": 8211,
      "assessments": 8212,
      "observateurs": 8213,
      "secondaire": 8214,
      "figures": 8215,
      "filles": 8216,
      "comparative": 8217,
      "Syst": 8218,
      "targets": 8219,
      "opinions": 8220,
      "Technical": 8221,
      "fisc": 8222,
      "herein": 8223,
      "probablement": 8224,
      "libér": 8225,
      "montrent": 8226,
      "paiements": 8227,
      "Assistant": 8228,
      "excellence": 8229,
      "Appeal": 8230,
      "meilleur": 8231,
      "Histor": 8232,
      "rurales": 8233,
      "Journal": 8234,
      "extreme": 8235,
      "AV": 8236,
      "Bal": 8237,
      "Care": 8238,
      "Fri": 8239,
      "Item": 8240,
      "Oce": 8241,
      "SAR": 8242,
      "Tour": 8243,
      "].": 8244,
      "bate": 8245,
      "gap": 8246,
      "mette": 8247,
      "nest": 8248,
      "pd": 8249,
      "écou": 8250,
      "tivities": 8251,
      "ano": 8252,
      "antive": 8253,
      "anmar": 8254,
      "think": 8255,
      "dep": 8256,
      "dette": 8257,
      "lets": 8258,
      "lates": 8259,
      "quad": 8260,
      "quick": 8261,
      "illegal": 8262,
      "sight": 8263,
      "ington": 8264,
      "expo": 8265,
      "abou": 8266,
      "auxquels": 8267,
      "impossible": 8268,
      "enders": 8269,
      "puts": 8270,
      "grant": 8271,
      "visées": 8272,
      "voi": 8273,
      "prélimin": 8274,
      "entrepris": 8275,
      "chefs": 8276,
      "stages": 8277,
      "communes": 8278,
      "fondé": 8279,
      "consent": 8280,
      "mitig": 8281,
      "inclure": 8282,
      "carte": 8283,
      "150": 8284,
      "CED": 8285,
      "Excell": 8286,
      "welcomed": 8287,
      "budgets": 8288,
      "multilateral": 8289,
      "express": 8290,
      "destination": 8291,
      "utili": 8292,
      "temporaire": 8293,
      "previously": 8294,
      "ajouter": 8295,
      "Standards": 8296,
      "Assistance": 8297,
      "Myanmar": 8298,
      "QUES": 8299,
      "empêcher": 8300,
      "endroit": 8301,
      "Honour": 8302,
      "remboursement": 8303,
      "targeted": 8304,
      "819": 8305,
      "Brésil": 8306,
      "David": 8307,
      "KB": 8308,
      "Lis": 8309,
      "Mig": 8310,
      "MAR": 8311,
      "VER": 8312,
      "Wildlife": 8313,
      "electric": 8314,
      "élection": 8315,
      "tile": 8316,
      "enty": 8317,
      "ententes": 8318,
      "concr": 8319,
      "containing": 8320,
      "veu": 8321,
      "compréhen": 8322,
      "pourra": 8323,
      "lutter": 8324,
      "preliminary": 8325,
      "mén": 8326,
      "Proactive": 8327,
      "Third": 8328,
      "étapes": 8329,
      "transaction": 8330,
      "employeurs": 8331,
      "nouvel": 8332,
      "pensions": 8333,
      "invite": 8334,
      "objection": 8335,
      "Genève": 8336,
      "tariff": 8337,
      "climat": 8338,
      "1986": 8339,
      "jointe": 8340,
      "mort": 8341,
      "appliquent": 8342,
      "reflected": 8343,
      "graphie": 8344,
      "host": 8345,
      "ologie": 8346,
      "incident": 8347,
      "incidents": 8348,
      "officiel": 8349,
      "improvements": 8350,
      "campaign": 8351,
      "decide": 8352,
      "sauf": 8353,
      "combined": 8354,
      "Class": 8355,
      "dealing": 8356,
      "sexuelle": 8357,
      "carbone": 8358,
      "hausse": 8359,
      "William": 8360,
      "allégations": 8361,
      "Licence": 8362,
      "Infrastructure": 8363,
      "Cadre": 8364,
      "consumers": 8365,
      "Photo": 8366,
      "Beau": 8367,
      "Gar": 8368,
      "ION": 8369,
      "SU": 8370,
      "rary": 8371,
      "writing": 8372,
      "ened": 8373,
      "ered": 8374,
      "trice": 8375,
      "seurs": 8376,
      "chlor": 8377,
      "paras": 8378,
      "los": 8379,
      "ush": 8380,
      "plants": 8381,
      "sten": 8382,
      "modes": 8383,
      "buil": 8384,
      "alling": 8385,
      "tivités": 8386,
      "Rev": 8387,
      "Reports": 8388,
      "aria": 8389,
      "presque": 8390,
      "possibles": 8391,
      "plas": 8392,
      "developments": 8393,
      "juges": 8394,
      "legiti": 8395,
      "invitation": 8396,
      "fémin": 8397,
      "fulfil": 8398,
      "Sever": 8399,
      "drawn": 8400,
      "environnementaux": 8401,
      "modifié": 8402,
      "Application": 8403,
      "residents": 8404,
      "limiter": 8405,
      "infraction": 8406,
      "biais": 8407,
      "achieving": 8408,
      "ologiques": 8409,
      "incidences": 8410,
      "equivalent": 8411,
      "propriéta": 8412,
      "exportations": 8413,
      "respectivement": 8414,
      "Guidelines": 8415,
      "Capital": 8416,
      "indépendance": 8417,
      "constant": 8418,
      "annoncé": 8419,
      "drugs": 8420,
      "handicapées": 8421,
      "prescriptions": 8422,
      "soldats": 8423,
      "Autor": 8424,
      "computer": 8425,
      "Risk": 8426,
      "Mad": 8427,
      "Mise": 8428,
      "SH": 8429,
      "Tunis": 8430,
      "py": 8431,
      "Écosse": 8432,
      "ét": 8433,
      "thi": 8434,
      "rep": 8435,
      "entendu": 8436,
      "alli": 8437,
      "arité": 8438,
      "consoli": 8439,
      "perte": 8440,
      "impression": 8441,
      "codes": 8442,
      "commande": 8443,
      "lumière": 8444,
      "nial": 8445,
      "stri": 8446,
      "sémin": 8447,
      "valoir": 8448,
      "organe": 8449,
      "Thus": 8450,
      "courriel": 8451,
      "drogues": 8452,
      "changing": 8453,
      "break": 8454,
      "cash": 8455,
      "Euro": 8456,
      "Fort": 8457,
      "fourth": 8458,
      "anticip": 8459,
      "Statement": 8460,
      "Résul": 8461,
      "experien": 8462,
      "obligatoire": 8463,
      "petite": 8464,
      "difference": 8465,
      "candidat": 8466,
      "specialized": 8467,
      "career": 8468,
      "équitable": 8469,
      "fixed": 8470,
      "entered": 8471,
      "investigations": 8472,
      "remplacement": 8473,
      "jobs": 8474,
      "hospital": 8475,
      "Political": 8476,
      "expul": 8477,
      "budgétaire": 8478,
      "disease": 8479,
      "garanties": 8480,
      "advantage": 8481,
      "Draft": 8482,
      "Change": 8483,
      "Orient": 8484,
      "supérieure": 8485,
      "comportement": 8486,
      "Sustainable": 8487,
      "Cari": 8488,
      "Dan": 8489,
      "LT": 8490,
      "Liste": 8491,
      "Moun": 8492,
      "Omb": 8493,
      "Rou": 8494,
      "Veu": 8495,
      "gène": 8496,
      "ield": 8497,
      "rance": 8498,
      "sac": 8499,
      "smo": 8500,
      "vites": 8501,
      "xy": 8502,
      "inage": 8503,
      "eric": 8504,
      "ores": 8505,
      "lege": 8506,
      "ald": 8507,
      "acce": 8508,
      "réus": 8509,
      "ague": 8510,
      "expenses": 8511,
      "pourront": 8512,
      "managed": 8513,
      "teneur": 8514,
      "grade": 8515,
      "vices": 8516,
      "Procure": 8517,
      "régler": 8518,
      "huit": 8519,
      "organisée": 8520,
      "idential": 8521,
      "identifier": 8522,
      "continué": 8523,
      "continuera": 8524,
      "1981": 8525,
      "1984": 8526,
      "datée": 8527,
      "attle": 8528,
      "estimates": 8529,
      "Jeux": 8530,
      "contacts": 8531,
      "modèles": 8532,
      "officielle": 8533,
      "alimentation": 8534,
      "Observ": 8535,
      "prêt": 8536,
      "debt": 8537,
      "administrations": 8538,
      "Summit": 8539,
      "compatible": 8540,
      "Neuve": 8541,
      "Street": 8542,
      "soixante": 8543,
      "compréhension": 8544,
      "Gran": 8545,
      "MAT": 8546,
      "Option": 8547,
      "RO": 8548,
      "Ve": 8549,
      "aj": 8550,
      "aer": 8551,
      "hiver": 8552,
      "vage": 8553,
      "zen": 8554,
      "enting": 8555,
      "anes": 8556,
      "anal": 8557,
      "ania": 8558,
      "thre": 8559,
      "eters": 8560,
      "trac": 8561,
      "sea": 8562,
      "fores": 8563,
      "park": 8564,
      "tera": 8565,
      "exces": 8566,
      "began": 8567,
      "became": 8568,
      "roles": 8569,
      "vidé": 8570,
      "auxquelles": 8571,
      "mining": 8572,
      "ulum": 8573,
      "interdit": 8574,
      "Concer": 8575,
      "visual": 8576,
      "Revenue": 8577,
      "entities": 8578,
      "licences": 8579,
      "larger": 8580,
      "changed": 8581,
      "souff": 8582,
      "approches": 8583,
      "operative": 8584,
      "employed": 8585,
      "appears": 8586,
      "protected": 8587,
      "biennium": 8588,
      "homo": 8589,
      "intel": 8590,
      "résidents": 8591,
      "periodic": 8592,
      "seek": 8593,
      "ierre": 8594,
      "réalité": 8595,
      "occupation": 8596,
      "bilateral": 8597,
      "summer": 8598,
      "enhanced": 8599,
      "équité": 8600,
      "delà": 8601,
      "Tableau": 8602,
      "matériaux": 8603,
      "relief": 8604,
      "universal": 8605,
      "négociation": 8606,
      "quantité": 8607,
      "respectively": 8608,
      "harmonisation": 8609,
      "Australia": 8610,
      "consumption": 8611,
      "guarante": 8612,
      "protocole": 8613,
      "Network": 8614,
      "diploma": 8615,
      "découlant": 8616,
      "susceptibles": 8617,
      "remplir": 8618,
      "vulnerable": 8619,
      "Learning": 8620,
      "pdf": 8621,
      "Ombu": 8622,
      "Veuillez": 8623,
      "Clo": 8624,
      "Lou": 8625,
      "NAT": 8626,
      "Pendant": 8627,
      "SOC": 8628,
      "Ze": 8629,
      "say": 8630,
      "êtres": 8631,
      "encontre": 8632,
      "represents": 8633,
      "delay": 8634,
      "ardi": 8635,
      "arab": 8636,
      "trust": 8637,
      "cibl": 8638,
      "exceed": 8639,
      "performed": 8640,
      "Indic": 8641,
      "ounded": 8642,
      "fif": 8643,
      "phon": 8644,
      "titulaire": 8645,
      "communs": 8646,
      "plaignant": 8647,
      "présentes": 8648,
      "donateurs": 8649,
      "minister": 8650,
      "travers": 8651,
      "nommé": 8652,
      "TIF": 8653,
      "issance": 8654,
      "amendements": 8655,
      "constitute": 8656,
      "ECD": 8657,
      "graphique": 8658,
      "graphiques": 8659,
      "Isla": 8660,
      "Traité": 8661,
      "salari": 8662,
      "spécialistes": 8663,
      "fédérales": 8664,
      "Corée": 8665,
      "sectori": 8666,
      "armées": 8667,
      "satisfaire": 8668,
      "intégrité": 8669,
      "Russia": 8670,
      "bénéficier": 8671,
      "Supplement": 8672,
      "confirmed": 8673,
      "background": 8674,
      "holder": 8675,
      "holds": 8676,
      "distinct": 8677,
      "côté": 8678,
      "Australie": 8679,
      "fourniture": 8680,
      "largest": 8681,
      "emphasis": 8682,
      "progressive": 8683,
      "neuf": 8684,
      "category": 8685,
      "tâche": 8686,
      "pilote": 8687,
      "characteristics": 8688,
      "Participation": 8689,
      "Robert": 8690,
      "Commerce": 8691,
      "Promotion": 8692,
      "naissance": 8693,
      "Monitoring": 8694,
      "Ali": 8695,
      "Dou": 8696,
      "K1A": 8697,
      "Mid": 8698,
      "MIS": 8699,
      "PN": 8700,
      "RN": 8701,
      "Sk": 8702,
      "Sier": 8703,
      "Small": 8704,
      "TPS": 8705,
      "aties": 8706,
      "cm": 8707,
      "eign": 8708,
      "mations": 8709,
      "êtes": 8710,
      "dead": 8711,
      "argent": 8712,
      "atre": 8713,
      "chron": 8714,
      "treaties": 8715,
      "ami": 8716,
      "Command": 8717,
      "Read": 8718,
      "preme": 8719,
      "marri": 8720,
      "courant": 8721,
      "achat": 8722,
      "subs": 8723,
      "female": 8724,
      "différence": 8725,
      "cédent": 8726,
      "jugé": 8727,
      "EST": 8728,
      "employers": 8729,
      "utilise": 8730,
      "contribuent": 8731,
      "biennal": 8732,
      "enfance": 8733,
      "puisqu": 8734,
      "exemples": 8735,
      "privées": 8736,
      "culturel": 8737,
      "multiple": 8738,
      "RCMP": 8739,
      "novation": 8740,
      "figurent": 8741,
      "revenues": 8742,
      "complexe": 8743,
      "convenu": 8744,
      "stipu": 8745,
      "Première": 8746,
      "alimentaires": 8747,
      "gains": 8748,
      "garantie": 8749,
      "citoyen": 8750,
      "distinction": 8751,
      "Plans": 8752,
      "prochain": 8753,
      "calls": 8754,
      "attached": 8755,
      "aérienne": 8756,
      "bulletin": 8757,
      "proliferation": 8758,
      "Bosnie": 8759,
      "poissons": 8760,
      "Following": 8761,
      "forêts": 8762,
      "rivière": 8763,
      "Partnership": 8764,
      "Équipe": 8765,
      "Honourable": 8766,
      "Avec": 8767,
      "Hong": 8768,
      "Tan": 8769,
      "cité": 8770,
      "elected": 8771,
      "electoral": 8772,
      "gs": 8773,
      "gel": 8774,
      "han": 8775,
      "liter": 8776,
      "pul": 8777,
      "tan": 8778,
      "ws": 8779,
      "enough": 8780,
      "insuffis": 8781,
      "thes": 8782,
      "things": 8783,
      "lever": 8784,
      "alco": 8785,
      "true": 8786,
      "auth": 8787,
      "chrom": 8788,
      "lior": 8789,
      "suites": 8790,
      "agré": 8791,
      "mative": 8792,
      "ston": 8793,
      "mineurs": 8794,
      "avy": 8795,
      "Inves": 8796,
      "inscrits": 8797,
      "illég": 8798,
      "stres": 8799,
      "allant": 8800,
      "fields": 8801,
      "sépar": 8802,
      "Recommend": 8803,
      "contraire": 8804,
      "prepare": 8805,
      "programmation": 8806,
      "weight": 8807,
      "rapporteur": 8808,
      "ressor": 8809,
      "mené": 8810,
      "menée": 8811,
      "effectif": 8812,
      "susmention": 8813,
      "Activities": 8814,
      "Covenant": 8815,
      "décès": 8816,
      "north": 8817,
      "draf": 8818,
      "ICT": 8819,
      "premières": 8820,
      "réalisé": 8821,
      "actively": 8822,
      "échel": 8823,
      "achievement": 8824,
      "judice": 8825,
      "AUX": 8826,
      "stimul": 8827,
      "Herz": 8828,
      "recruitment": 8829,
      "Survey": 8830,
      "independence": 8831,
      "judiciaires": 8832,
      "préoccupation": 8833,
      "teams": 8834,
      "législatives": 8835,
      "Speci": 8836,
      "sequently": 8837,
      "extrême": 8838,
      "Musée": 8839,
      "prohibited": 8840,
      "Question": 8841,
      "Bosnia": 8842,
      "democracy": 8843,
      "habilitation": 8844,
      "répartition": 8845,
      "Consider": 8846,
      "Customs": 8847,
      "exposure": 8848,
      "BE": 8849,
      "Er": 8850,
      "GRC": 8851,
      "IE": 8852,
      "Millénaire": 8853,
      "NATION": 8854,
      "WTO": 8855,
      "bit": 8856,
      "fies": 8857,
      "mith": 8858,
      "nul": 8859,
      "round": 8860,
      "sports": 8861,
      "title": 8862,
      "thir": 8863,
      "reconstruction": 8864,
      "ori": 8865,
      "oro": 8866,
      "seed": 8867,
      "vez": 8868,
      "siège": 8869,
      "acid": 8870,
      "advis": 8871,
      "agu": 8872,
      "noti": 8873,
      "impose": 8874,
      "managing": 8875,
      "disability": 8876,
      "venus": 8877,
      "Leone": 8878,
      "voix": 8879,
      "incur": 8880,
      "possession": 8881,
      "weak": 8882,
      "foster": 8883,
      "syner": 8884,
      "tested": 8885,
      "substitu": 8886,
      "mettent": 8887,
      "céré": 8888,
      "Autre": 8889,
      "appeared": 8890,
      "Italy": 8891,
      "organizational": 8892,
      "continuent": 8893,
      "completion": 8894,
      "offences": 8895,
      "opérationnelles": 8896,
      "européens": 8897,
      "améliorations": 8898,
      "registre": 8899,
      "Islands": 8900,
      "Position": 8901,
      "bonnes": 8902,
      "Previous": 8903,
      "culturels": 8904,
      "STA": 8905,
      "existants": 8906,
      "CNU": 8907,
      "statistical": 8908,
      "OMC": 8909,
      "piration": 8910,
      "ancien": 8911,
      "Maj": 8912,
      "énoncés": 8913,
      "argument": 8914,
      "précédente": 8915,
      "arabe": 8916,
      "message": 8917,
      "Espagne": 8918,
      "Military": 8919,
      "Paragraph": 8920,
      "friend": 8921,
      "cellules": 8922,
      "éthique": 8923,
      "juridiction": 8924,
      "navires": 8925,
      "Population": 8926,
      "Victor": 8927,
      "behaviour": 8928,
      "Sierra": 8929,
      "Crown": 8930,
      "CIDA": 8931,
      "DD": 8932,
      "Its": 8933,
      "Multi": 8934,
      "PME": 8935,
      "SG": 8936,
      "eli": 8937,
      "gies": 8938,
      "rational": 8939,
      "routes": 8940,
      "sav": 8941,
      "xim": 8942,
      "Étant": 8943,
      "ôles": 8944,
      "enjeux": 8945,
      "devenir": 8946,
      "orded": 8947,
      "itch": 8948,
      "congé": 8949,
      "segment": 8950,
      "veut": 8951,
      "prolong": 8952,
      "irs": 8953,
      "diam": 8954,
      "riques": 8955,
      "exposé": 8956,
      "apport": 8957,
      "ateliers": 8958,
      "withdraw": 8959,
      "blan": 8960,
      "Consu": 8961,
      "Conditions": 8962,
      "complement": 8963,
      "files": 8964,
      "controls": 8965,
      "feel": 8966,
      "logie": 8967,
      "south": 8968,
      "concernées": 8969,
      "régimes": 8970,
      "cyclo": 8971,
      "engaged": 8972,
      "clare": 8973,
      "organiser": 8974,
      "130": 8975,
      "Internal": 8976,
      "presentation": 8977,
      "Italie": 8978,
      "INTER": 8979,
      "légiti": 8980,
      "ATE": 8981,
      "effectivement": 8982,
      "considérés": 8983,
      "entement": 8984,
      "involve": 8985,
      "auraient": 8986,
      "substantive": 8987,
      "helping": 8988,
      "diversi": 8989,
      "intens": 8990,
      "stop": 8991,
      "Parliamentary": 8992,
      "destinées": 8993,
      "POUR": 8994,
      "CONF": 8995,
      "animal": 8996,
      "utiles": 8997,
      "pertinents": 8998,
      "About": 8999,
      "demonstrated": 9000,
      "Profession": 9001,
      "parlementaires": 9002,
      "vaccin": 9003,
      "dispositif": 9004,
      "calendrier": 9005,
      "chtone": 9006,
      "énergétique": 9007,
      "Given": 9008,
      "Korea": 9009,
      "confidence": 9010,
      "Système": 9011,
      "threats": 9012,
      "110": 9013,
      ">.": 9014,
      "Bre": 9015,
      "Ire": 9016,
      "Pal": 9017,
      "RÉ": 9018,
      "Red": 9019,
      "Roman": 9020,
      "Tax": 9021,
      "iment": 9022,
      "île": 9023,
      "online": 9024,
      "tiendra": 9025,
      "rely": 9026,
      "entrer": 9027,
      "asile": 9028,
      "auquel": 9029,
      "convain": 9030,
      "rated": 9031,
      "poids": 9032,
      "powers": 9033,
      "perception": 9034,
      "vivant": 9035,
      "tina": 9036,
      "motiv": 9037,
      "Inspe": 9038,
      "Incre": 9039,
      "grav": 9040,
      "nies": 9041,
      "phr": 9042,
      "Lakes": 9043,
      "partis": 9044,
      "Process": 9045,
      "fee": 9046,
      "logici": 9047,
      "speed": 9048,
      "technic": 9049,
      "maintaining": 9050,
      "facts": 9051,
      "suspension": 9052,
      "indiquent": 9053,
      "ANCE": 9054,
      "ssification": 9055,
      "décen": 9056,
      "Programs": 9057,
      "ACT": 9058,
      "Supreme": 9059,
      "certaine": 9060,
      "offers": 9061,
      "opérationnel": 9062,
      "couv": 9063,
      "petit": 9064,
      "villes": 9065,
      "Finland": 9066,
      "receiving": 9067,
      "Planning": 9068,
      "axée": 9069,
      "administratif": 9070,
      "latter": 9071,
      "lists": 9072,
      "minorities": 9073,
      "établies": 9074,
      "generation": 9075,
      "radiodiffusion": 9076,
      "Chamber": 9077,
      "Chambre": 9078,
      "futures": 9079,
      "frontière": 9080,
      "tanding": 9081,
      "Montreal": 9082,
      "intellectuelle": 9083,
      "started": 9084,
      "failure": 9085,
      "sensitive": 9086,
      "deployment": 9087,
      "Market": 9088,
      "check": 9089,
      "Georgia": 9090,
      "acknowled": 9091,
      "perfectionnement": 9092,
      "Millennium": 9093,
      "numerous": 9094,
      "veuillez": 9095,
      "Ireland": 9096,
      "Area": 9097,
      "BO": 9098,
      "Det": 9099,
      "James": 9100,
      "Men": 9101,
      "Spending": 9102,
      "URE": 9103,
      "pages": 9104,
      "sper": 9105,
      "vég": 9106,
      "za": 9107,
      "éclair": 9108,
      "envers": 9109,
      "tière": 9110,
      "allocated": 9111,
      "archi": 9112,
      "lability": 9113,
      "print": 9114,
      "prême": 9115,
      "urch": 9116,
      "unless": 9117,
      "tock": 9118,
      "seau": 9119,
      "imposed": 9120,
      "whom": 9121,
      "ardous": 9122,
      "presenting": 9123,
      "lled": 9124,
      "présentent": 9125,
      "subvention": 9126,
      "dictions": 9127,
      "lante": 9128,
      "Art": 9129,
      "financer": 9130,
      "Nos": 9131,
      "updated": 9132,
      "placements": 9133,
      "initiated": 9134,
      "tware": 9135,
      "TIONS": 9136,
      "surveys": 9137,
      "involves": 9138,
      "fondamental": 9139,
      "présidence": 9140,
      "reçues": 9141,
      "favorable": 9142,
      "expériences": 9143,
      "Engine": 9144,
      "francoph": 9145,
      "souligner": 9146,
      "fishing": 9147,
      "holding": 9148,
      "transparent": 9149,
      "aims": 9150,
      "souhaite": 9151,
      "ilibre": 9152,
      "Persons": 9153,
      "television": 9154,
      "ratio": 9155,
      "discipline": 9156,
      "Toutes": 9157,
      "atmosphéri": 9158,
      "ovine": 9159,
      "decrease": 9160,
      "susceptible": 9161,
      "pièces": 9162,
      "similaires": 9163,
      "vulnérables": 9164,
      "palestinien": 9165,
      "Senior": 9166,
      "intéressées": 9167,
      "quiry": 9168,
      "suggest": 9169,
      "Language": 9170,
      "échantillon": 9171,
      "acquitter": 9172,
      "diagnos": 9173,
      "travaillent": 9174,
      "adressée": 9175,
      "Ombudsman": 9176,
      "Cré": 9177,
      "Games": 9178,
      "Lin": 9179,
      "Last": 9180,
      "Mis": 9181,
      "Nig": 9182,
      "SME": 9183,
      "gènes": 9184,
      "hun": 9185,
      "lour": 9186,
      "masse": 9187,
      "ois": 9188,
      "pace": 9189,
      "sés": 9190,
      "yers": 9191,
      "émission": 9192,
      "états": 9193,
      "oure": 9194,
      "alu": 9195,
      "conjoin": 9196,
      "neigh": 9197,
      "comités": 9198,
      "died": 9199,
      "démo": 9200,
      "oly": 9201,
      "makers": 9202,
      "noter": 9203,
      "amor": 9204,
      "Insurance": 9205,
      "1970": 9206,
      "sond": 9207,
      "Constru": 9208,
      "Lead": 9209,
      "visu": 9210,
      "compta": 9211,
      "égovine": 9212,
      "fiant": 9213,
      "Related": 9214,
      "prime": 9215,
      "wee": 9216,
      "wealth": 9217,
      "recen": 9218,
      "chement": 9219,
      "ferred": 9220,
      "govin": 9221,
      "ideas": 9222,
      "END": 9223,
      "giving": 9224,
      "morph": 9225,
      "déterminé": 9226,
      "habitants": 9227,
      "zegovin": 9228,
      "délégu": 9229,
      "faudrait": 9230,
      "offerts": 9231,
      "décider": 9232,
      "Herzegovin": 9233,
      "Asian": 9234,
      "formulation": 9235,
      "AGE": 9236,
      "Directorate": 9237,
      "offrent": 9238,
      "integrity": 9239,
      "measured": 9240,
      "crises": 9241,
      "souhaitent": 9242,
      "touchant": 9243,
      "admissible": 9244,
      "judges": 9245,
      "German": 9246,
      "préparer": 9247,
      "expand": 9248,
      "ministériel": 9249,
      "firm": 9250,
      "Location": 9251,
      "alleged": 9252,
      "bénéficiaires": 9253,
      "semaines": 9254,
      "damage": 9255,
      "workshops": 9256,
      "Current": 9257,
      "Lebanon": 9258,
      "indispensable": 9259,
      "Schedule": 9260,
      "phénom": 9261,
      "permettront": 9262,
      "hereinafter": 9263,
      "Herzégovine": 9264,
      "Herzegovina": 9265,
      "ACO": 9266,
      "Dani": 9267,
      "Jord": 9268,
      "Open": 9269,
      "OECD": 9270,
      "Right": 9271,
      "San": 9272,
      "Smith": 9273,
      "Tari": 9274,
      "bus": 9275,
      "idée": 9276,
      "lers": 9277,
      "rons": 9278,
      "vor": 9279,
      "évo": 9280,
      "ôts": 9281,
      "conjoint": 9282,
      "acade": 9283,
      "chance": 9284,
      "adé": 9285,
[...]
